#include "magic_wand_model_data.h"

// We need to keep the data array aligned on some architectures.
#ifdef __has_attribute
#define HAVE_ATTRIBUTE(x) __has_attribute(x)
#else
#define HAVE_ATTRIBUTE(x) 0
#endif
#if HAVE_ATTRIBUTE(aligned) || (defined(__GNUC__) && !defined(__clang__))
#define DATA_ALIGN_ATTRIBUTE __attribute__((aligned(4)))
#else
#define DATA_ALIGN_ATTRIBUTE
#endif

const unsigned char g_magic_wand_model_data[] DATA_ALIGN_ATTRIBUTE = {
  // Paste the data of the char array in `src/model.cc` here
  0x1c, 0x00, 0x00, 0x00, 0x54, 0x46, 0x4c, 0x33, 0x14, 0x00, 0x20, 0x00,
  0x04, 0x00, 0x08, 0x00, 0x0c, 0x00, 0x10, 0x00, 0x14, 0x00, 0x00, 0x00,
  0x18, 0x00, 0x1c, 0x00, 0x14, 0x00, 0x00, 0x00, 0x03, 0x00, 0x00, 0x00,
  0x18, 0x00, 0x00, 0x00, 0x2c, 0x00, 0x00, 0x00, 0xd8, 0x00, 0x00, 0x00,
  0x2c, 0x00, 0x00, 0x00, 0x80, 0x00, 0x00, 0x00, 0x78, 0x00, 0x00, 0x00,
  0x05, 0x00, 0x00, 0x00, 0x28, 0x07, 0x00, 0x00, 0x44, 0x06, 0x00, 0x00,
  0xbc, 0x03, 0x00, 0x00, 0xf8, 0x02, 0x00, 0x00, 0xac, 0x01, 0x00, 0x00,
  0x01, 0x00, 0x00, 0x00, 0xd0, 0x00, 0x00, 0x00, 0x14, 0x00, 0x00, 0x00,
  0xdc, 0x32, 0x00, 0x00, 0xd8, 0x32, 0x00, 0x00, 0xd0, 0x31, 0x00, 0x00,
  0x1c, 0x31, 0x00, 0x00, 0x74, 0x30, 0x00, 0x00, 0xfc, 0x2f, 0x00, 0x00,
  0x90, 0x2f, 0x00, 0x00, 0x40, 0x13, 0x00, 0x00, 0xec, 0x11, 0x00, 0x00,
  0x10, 0x10, 0x00, 0x00, 0xb4, 0x07, 0x00, 0x00, 0xb0, 0x32, 0x00, 0x00,
  0xac, 0x32, 0x00, 0x00, 0xa8, 0x32, 0x00, 0x00, 0xa4, 0x32, 0x00, 0x00,
  0xa0, 0x32, 0x00, 0x00, 0x9c, 0x32, 0x00, 0x00, 0x98, 0x32, 0x00, 0x00,
  0x94, 0x32, 0x00, 0x00, 0x3c, 0x00, 0x00, 0x00, 0x00, 0x00, 0x00, 0x00,
  0x01, 0x00, 0x00, 0x00, 0x0c, 0x00, 0x00, 0x00, 0x08, 0x00, 0x0c, 0x00,
  0x04, 0x00, 0x08, 0x00, 0x08, 0x00, 0x00, 0x00, 0x08, 0x00, 0x00, 0x00,
  0x13, 0x00, 0x00, 0x00, 0x13, 0x00, 0x00, 0x00, 0x6d, 0x69, 0x6e, 0x5f,
  0x72, 0x75, 0x6e, 0x74, 0x69, 0x6d, 0x65, 0x5f, 0x76, 0x65, 0x72, 0x73,
  0x69, 0x6f, 0x6e, 0x00, 0xb6, 0xce, 0xff, 0xff, 0x04, 0x00, 0x00, 0x00,
  0x10, 0x00, 0x00, 0x00, 0x31, 0x2e, 0x35, 0x2e, 0x30, 0x00, 0x00, 0x00,
  0x00, 0x00, 0x00, 0x00, 0x00, 0x00, 0x00, 0x00, 0x0f, 0x00, 0x00, 0x00,
  0x4d, 0x4c, 0x49, 0x52, 0x20, 0x43, 0x6f, 0x6e, 0x76, 0x65, 0x72, 0x74,
  0x65, 0x64, 0x2e, 0x00, 0x00, 0x00, 0x0e, 0x00, 0x18, 0x00, 0x04, 0x00,
  0x08, 0x00, 0x0c, 0x00, 0x10, 0x00, 0x14, 0x00, 0x0e, 0x00, 0x00, 0x00,
  0x14, 0x00, 0x00, 0x00, 0x5c, 0x00, 0x00, 0x00, 0x60, 0x00, 0x00, 0x00,
  0x64, 0x00, 0x00, 0x00, 0x84, 0x00, 0x00, 0x00, 0x12, 0x00, 0x00, 0x00,
  0x9c, 0x31, 0x00, 0x00, 0x2c, 0x31, 0x00, 0x00, 0x88, 0x30, 0x00, 0x00,
  0xe0, 0x2f, 0x00, 0x00, 0x38, 0x2f, 0x00, 0x00, 0xd4, 0x2e, 0x00, 0x00,
  0x6c, 0x2e, 0x00, 0x00, 0x18, 0x12, 0x00, 0x00, 0xbc, 0x10, 0x00, 0x00,
  0xe0, 0x0e, 0x00, 0x00, 0x0c, 0x06, 0x00, 0x00, 0x28, 0x05, 0x00, 0x00,
  0xe8, 0x03, 0x00, 0x00, 0x3c, 0x03, 0x00, 0x00, 0x98, 0x02, 0x00, 0x00,
  0xd4, 0x01, 0x00, 0x00, 0x10, 0x01, 0x00, 0x00, 0x84, 0x00, 0x00, 0x00,
  0x01, 0x00, 0x00, 0x00, 0x00, 0x00, 0x00, 0x00, 0x01, 0x00, 0x00, 0x00,
  0x11, 0x00, 0x00, 0x00, 0x08, 0x00, 0x00, 0x00, 0x74, 0x05, 0x00, 0x00,
  0x94, 0x04, 0x00, 0x00, 0x78, 0x03, 0x00, 0x00, 0xbc, 0x02, 0x00, 0x00,
  0x30, 0x02, 0x00, 0x00, 0x50, 0x01, 0x00, 0x00, 0xa8, 0x00, 0x00, 0x00,
  0x10, 0x00, 0x00, 0x00, 0x04, 0x00, 0x00, 0x00, 0x6d, 0x61, 0x69, 0x6e,
  0x00, 0x00, 0x00, 0x00, 0x7a, 0xff, 0xff, 0xff, 0x00, 0x00, 0x00, 0x09,
  0x04, 0x00, 0x00, 0x00, 0x1c, 0x00, 0x00, 0x00, 0x10, 0x00, 0x00, 0x00,
  0x04, 0x00, 0x00, 0x00, 0xb2, 0xcf, 0xff, 0xff, 0x00, 0x00, 0x80, 0x3f,
  0x01, 0x00, 0x00, 0x00, 0x11, 0x00, 0x00, 0x00, 0x01, 0x00, 0x00, 0x00,
  0x10, 0x00, 0x00, 0x00, 0xa0, 0xfa, 0xff, 0xff, 0x19, 0x00, 0x00, 0x00,
  0x00, 0x00, 0x00, 0x19, 0x01, 0x00, 0x00, 0x00, 0x40, 0xcf, 0xff, 0xff,
  0x14, 0x00, 0x00, 0x00, 0x12, 0x00, 0x00, 0x00, 0x18, 0x00, 0x00, 0x00,
  0x30, 0x00, 0x00, 0x00, 0x20, 0x00, 0x00, 0x00, 0x02, 0x00, 0x00, 0x00,
  0x01, 0x00, 0x00, 0x00, 0x04, 0x00, 0x00, 0x00, 0x08, 0x00, 0x00, 0x00,
  0x49, 0x64, 0x65, 0x6e, 0x74, 0x69, 0x74, 0x79, 0x00, 0x00, 0x00, 0x00,
  0x02, 0x00, 0x00, 0x00, 0xff, 0xff, 0xff, 0xff, 0x04, 0x00, 0x00, 0x00,
  0x24, 0xd0, 0xff, 0xff, 0x00, 0x00, 0x0e, 0x00, 0x18, 0x00, 0x08, 0x00,
  0x0c, 0x00, 0x10, 0x00, 0x07, 0x00, 0x14, 0x00, 0x0e, 0x00, 0x00, 0x00,
  0x00, 0x00, 0x00, 0x08, 0x03, 0x00, 0x00, 0x00, 0x18, 0x00, 0x00, 0x00,
  0x0c, 0x00, 0x00, 0x00, 0x04, 0x00, 0x00, 0x00, 0x40, 0xcf, 0xff, 0xff,
  0x01, 0x00, 0x00, 0x00, 0x10, 0x00, 0x00, 0x00, 0x03, 0x00, 0x00, 0x00,
  0x0f, 0x00, 0x00, 0x00, 0x07, 0x00, 0x00, 0x00, 0x04, 0x00, 0x00, 0x00,
  0xc8, 0xcf, 0xff, 0xff, 0x14, 0x00, 0x00, 0x00, 0x11, 0x00, 0x00, 0x00,
  0x18, 0x00, 0x00, 0x00, 0x5c, 0x00, 0x00, 0x00, 0x4c, 0x00, 0x00, 0x00,
  0x02, 0x00, 0x00, 0x00, 0x01, 0x00, 0x00, 0x00, 0x04, 0x00, 0x00, 0x00,
  0x34, 0x00, 0x00, 0x00, 0x73, 0x65, 0x71, 0x75, 0x65, 0x6e, 0x74, 0x69,
  0x61, 0x6c, 0x2f, 0x64, 0x65, 0x6e, 0x73, 0x65, 0x5f, 0x31, 0x2f, 0x4d,
  0x61, 0x74, 0x4d, 0x75, 0x6c, 0x3b, 0x73, 0x65, 0x71, 0x75, 0x65, 0x6e,
  0x74, 0x69, 0x61, 0x6c, 0x2f, 0x64, 0x65, 0x6e, 0x73, 0x65, 0x5f, 0x31,
  0x2f, 0x42, 0x69, 0x61, 0x73, 0x41, 0x64, 0x64, 0x00, 0x00, 0x00, 0x00,
  0x02, 0x00, 0x00, 0x00, 0xff, 0xff, 0xff, 0xff, 0x04, 0x00, 0x00, 0x00,
  0xc8, 0xcf, 0xff, 0xff, 0xda, 0xfc, 0xff, 0xff, 0x00, 0x00, 0x00, 0x08,
  0x03, 0x00, 0x00, 0x00, 0x24, 0x00, 0x00, 0x00, 0x18, 0x00, 0x00, 0x00,
  0x0c, 0x00, 0x00, 0x00, 0x00, 0x00, 0x06, 0x00, 0x08, 0x00, 0x07, 0x00,
  0x06, 0x00, 0x00, 0x00, 0x00, 0x00, 0x00, 0x01, 0x01, 0x00, 0x00, 0x00,
  0x0f, 0x00, 0x00, 0x00, 0x03, 0x00, 0x00, 0x00, 0x0e, 0x00, 0x00, 0x00,
  0x06, 0x00, 0x00, 0x00, 0x03, 0x00, 0x00, 0x00, 0xe8, 0xfb, 0xff, 0xff,
  0x09, 0x00, 0x00, 0x00, 0x00, 0x00, 0x00, 0x09, 0x01, 0x00, 0x00, 0x00,
  0x88, 0xd0, 0xff, 0xff, 0x14, 0x00, 0x00, 0x00, 0x10, 0x00, 0x00, 0x00,
  0x18, 0x00, 0x00, 0x00, 0x6c, 0x00, 0x00, 0x00, 0x5c, 0x00, 0x00, 0x00,
  0x02, 0x00, 0x00, 0x00, 0x01, 0x00, 0x00, 0x00, 0x10, 0x00, 0x00, 0x00,
  0x46, 0x00, 0x00, 0x00, 0x73, 0x65, 0x71, 0x75, 0x65, 0x6e, 0x74, 0x69,
  0x61, 0x6c, 0x2f, 0x64, 0x65, 0x6e, 0x73, 0x65, 0x2f, 0x4d, 0x61, 0x74,
  0x4d, 0x75, 0x6c, 0x3b, 0x73, 0x65, 0x71, 0x75, 0x65, 0x6e, 0x74, 0x69,
  0x61, 0x6c, 0x2f, 0x64, 0x65, 0x6e, 0x73, 0x65, 0x2f, 0x52, 0x65, 0x6c,
  0x75, 0x3b, 0x73, 0x65, 0x71, 0x75, 0x65, 0x6e, 0x74, 0x69, 0x61, 0x6c,
  0x2f, 0x64, 0x65, 0x6e, 0x73, 0x65, 0x2f, 0x42, 0x69, 0x61, 0x73, 0x41,
  0x64, 0x64, 0x00, 0x00, 0x02, 0x00, 0x00, 0x00, 0xff, 0xff, 0xff, 0xff,
  0x10, 0x00, 0x00, 0x00, 0xa8, 0xd1, 0xff, 0xff, 0x00, 0x00, 0x0a, 0x00,
  0x10, 0x00, 0x04, 0x00, 0x08, 0x00, 0x0c, 0x00, 0x0a, 0x00, 0x00, 0x00,
  0x02, 0x00, 0x00, 0x00, 0x10, 0x00, 0x00, 0x00, 0x04, 0x00, 0x00, 0x00,
  0x01, 0x00, 0x00, 0x00, 0x0e, 0x00, 0x00, 0x00, 0x02, 0x00, 0x00, 0x00,
  0x0d, 0x00, 0x00, 0x00, 0x05, 0x00, 0x00, 0x00, 0xa8, 0xfc, 0xff, 0xff,
  0x16, 0x00, 0x00, 0x00, 0x00, 0x00, 0x00, 0x16, 0x01, 0x00, 0x00, 0x00,
  0x48, 0xd1, 0xff, 0xff, 0x14, 0x00, 0x00, 0x00, 0x0f, 0x00, 0x00, 0x00,
  0x18, 0x00, 0x00, 0x00, 0x40, 0x00, 0x00, 0x00, 0x30, 0x00, 0x00, 0x00,
  0x02, 0x00, 0x00, 0x00, 0x01, 0x00, 0x00, 0x00, 0x70, 0x00, 0x00, 0x00,
  0x1a, 0x00, 0x00, 0x00, 0x73, 0x65, 0x71, 0x75, 0x65, 0x6e, 0x74, 0x69,
  0x61, 0x6c, 0x2f, 0x66, 0x6c, 0x61, 0x74, 0x74, 0x65, 0x6e, 0x2f, 0x52,
  0x65, 0x73, 0x68, 0x61, 0x70, 0x65, 0x00, 0x00, 0x02, 0x00, 0x00, 0x00,
  0xff, 0xff, 0xff, 0xff, 0x70, 0x00, 0x00, 0x00, 0x2c, 0xd1, 0xff, 0xff,
  0x3e, 0xfe, 0xff, 0xff, 0x00, 0x00, 0x00, 0x05, 0x01, 0x00, 0x00, 0x00,
  0x38, 0x00, 0x00, 0x00, 0x2c, 0x00, 0x00, 0x00, 0x14, 0x00, 0x00, 0x00,
  0x00, 0x00, 0x0e, 0x00, 0x14, 0x00, 0x00, 0x00, 0x10, 0x00, 0x0c, 0x00,
  0x08, 0x00, 0x04, 0x00, 0x0e, 0x00, 0x00, 0x00, 0x03, 0x00, 0x00, 0x00,
  0x01, 0x00, 0x00, 0x00, 0x03, 0x00, 0x00, 0x00, 0x01, 0x00, 0x00, 0x00,
  0x01, 0x00, 0x00, 0x00, 0x0d, 0x00, 0x00, 0x00, 0x01, 0x00, 0x00, 0x00,
  0x0c, 0x00, 0x00, 0x00, 0xe8, 0xd1, 0xff, 0xff, 0x14, 0x00, 0x00, 0x00,
  0x0e, 0x00, 0x00, 0x00, 0x20, 0x00, 0x00, 0x00, 0x58, 0x00, 0x00, 0x00,
  0x40, 0x00, 0x00, 0x00, 0x04, 0x00, 0x00, 0x00, 0x01, 0x00, 0x00, 0x00,
  0x07, 0x00, 0x00, 0x00, 0x01, 0x00, 0x00, 0x00, 0x10, 0x00, 0x00, 0x00,
  0x22, 0x00, 0x00, 0x00, 0x73, 0x65, 0x71, 0x75, 0x65, 0x6e, 0x74, 0x69,
  0x61, 0x6c, 0x2f, 0x6d, 0x61, 0x78, 0x5f, 0x70, 0x6f, 0x6f, 0x6c, 0x69,
  0x6e, 0x67, 0x32, 0x64, 0x5f, 0x31, 0x2f, 0x4d, 0x61, 0x78, 0x50, 0x6f,
  0x6f, 0x6c, 0x00, 0x00, 0x04, 0x00, 0x00, 0x00, 0xff, 0xff, 0xff, 0xff,
  0x07, 0x00, 0x00, 0x00, 0x01, 0x00, 0x00, 0x00, 0x10, 0x00, 0x00, 0x00,
  0xe4, 0xd1, 0xff, 0xff, 0x1a, 0xfe, 0xff, 0xff, 0x00, 0x00, 0x00, 0x01,
  0x24, 0x00, 0x00, 0x00, 0x18, 0x00, 0x00, 0x00, 0x04, 0x00, 0x00, 0x00,
  0x0c, 0xfe, 0xff, 0xff, 0x01, 0x00, 0x00, 0x00, 0x01, 0x00, 0x00, 0x00,
  0x00, 0x00, 0x00, 0x01, 0x01, 0x00, 0x00, 0x00, 0x0c, 0x00, 0x00, 0x00,
  0x03, 0x00, 0x00, 0x00, 0x0b, 0x00, 0x00, 0x00, 0x09, 0x00, 0x00, 0x00,
  0x02, 0x00, 0x00, 0x00, 0x90, 0xd2, 0xff, 0xff, 0x14, 0x00, 0x00, 0x00,
  0x0d, 0x00, 0x00, 0x00, 0x20, 0x00, 0x00, 0x00, 0xb8, 0x00, 0x00, 0x00,
  0xa0, 0x00, 0x00, 0x00, 0x04, 0x00, 0x00, 0x00, 0x01, 0x00, 0x00, 0x00,
  0x15, 0x00, 0x00, 0x00, 0x01, 0x00, 0x00, 0x00, 0x10, 0x00, 0x00, 0x00,
  0x83, 0x00, 0x00, 0x00, 0x73, 0x65, 0x71, 0x75, 0x65, 0x6e, 0x74, 0x69,
  0x61, 0x6c, 0x2f, 0x63, 0x6f, 0x6e, 0x76, 0x32, 0x64, 0x5f, 0x31, 0x2f,
  0x52, 0x65, 0x6c, 0x75, 0x3b, 0x73, 0x65, 0x71, 0x75, 0x65, 0x6e, 0x74,
  0x69, 0x61, 0x6c, 0x2f, 0x63, 0x6f, 0x6e, 0x76, 0x32, 0x64, 0x5f, 0x31,
  0x2f, 0x42, 0x69, 0x61, 0x73, 0x41, 0x64, 0x64, 0x3b, 0x73, 0x65, 0x71,
  0x75, 0x65, 0x6e, 0x74, 0x69, 0x61, 0x6c, 0x2f, 0x63, 0x6f, 0x6e, 0x76,
  0x32, 0x64, 0x5f, 0x31, 0x2f, 0x43, 0x6f, 0x6e, 0x76, 0x32, 0x44, 0x3b,
  0x73, 0x65, 0x71, 0x75, 0x65, 0x6e, 0x74, 0x69, 0x61, 0x6c, 0x2f, 0x63,
  0x6f, 0x6e, 0x76, 0x32, 0x64, 0x5f, 0x31, 0x2f, 0x42, 0x69, 0x61, 0x73,
  0x41, 0x64, 0x64, 0x2f, 0x52, 0x65, 0x61, 0x64, 0x56, 0x61, 0x72, 0x69,
  0x61, 0x62, 0x6c, 0x65, 0x4f, 0x70, 0x2f, 0x72, 0x65, 0x73, 0x6f, 0x75,
  0x72, 0x63, 0x65, 0x00, 0x04, 0x00, 0x00, 0x00, 0xff, 0xff, 0xff, 0xff,
  0x15, 0x00, 0x00, 0x00, 0x01, 0x00, 0x00, 0x00, 0x10, 0x00, 0x00, 0x00,
  0xfc, 0xd3, 0xff, 0xff, 0x00, 0x00, 0x0e, 0x00, 0x1a, 0x00, 0x08, 0x00,
  0x0c, 0x00, 0x10, 0x00, 0x07, 0x00, 0x14, 0x00, 0x0e, 0x00, 0x00, 0x00,
  0x00, 0x00, 0x00, 0x05, 0x01, 0x00, 0x00, 0x00, 0x3c, 0x00, 0x00, 0x00,
  0x30, 0x00, 0x00, 0x00, 0x14, 0x00, 0x00, 0x00, 0x00, 0x00, 0x0e, 0x00,
  0x18, 0x00, 0x17, 0x00, 0x10, 0x00, 0x0c, 0x00, 0x08, 0x00, 0x04, 0x00,
  0x0e, 0x00, 0x00, 0x00, 0x03, 0x00, 0x00, 0x00, 0x03, 0x00, 0x00, 0x00,
  0x03, 0x00, 0x00, 0x00, 0x03, 0x00, 0x00, 0x00, 0x00, 0x00, 0x00, 0x01,
  0x01, 0x00, 0x00, 0x00, 0x0b, 0x00, 0x00, 0x00, 0x01, 0x00, 0x00, 0x00,
  0x0a, 0x00, 0x00, 0x00, 0x2c, 0xff, 0xff, 0xff, 0x11, 0x00, 0x00, 0x00,
  0x00, 0x00, 0x00, 0x11, 0x01, 0x00, 0x00, 0x00, 0xcc, 0xd3, 0xff, 0xff,
  0x14, 0x00, 0x00, 0x00, 0x0c, 0x00, 0x00, 0x00, 0x20, 0x00, 0x00, 0x00,
  0x58, 0x00, 0x00, 0x00, 0x40, 0x00, 0x00, 0x00, 0x04, 0x00, 0x00, 0x00,
  0x01, 0x00, 0x00, 0x00, 0x15, 0x00, 0x00, 0x00, 0x01, 0x00, 0x00, 0x00,
  0x08, 0x00, 0x00, 0x00, 0x20, 0x00, 0x00, 0x00, 0x73, 0x65, 0x71, 0x75,
  0x65, 0x6e, 0x74, 0x69, 0x61, 0x6c, 0x2f, 0x6d, 0x61, 0x78, 0x5f, 0x70,
  0x6f, 0x6f, 0x6c, 0x69, 0x6e, 0x67, 0x32, 0x64, 0x2f, 0x4d, 0x61, 0x78,
  0x50, 0x6f, 0x6f, 0x6c, 0x00, 0x00, 0x00, 0x00, 0x04, 0x00, 0x00, 0x00,
  0xff, 0xff, 0xff, 0xff, 0x15, 0x00, 0x00, 0x00, 0x01, 0x00, 0x00, 0x00,
  0x08, 0x00, 0x00, 0x00, 0xd8, 0xd4, 0xff, 0xff, 0x00, 0x00, 0x0e, 0x00,
  0x14, 0x00, 0x00, 0x00, 0x08, 0x00, 0x0c, 0x00, 0x07, 0x00, 0x10, 0x00,
  0x0e, 0x00, 0x00, 0x00, 0x00, 0x00, 0x00, 0x01, 0x30, 0x00, 0x00, 0x00,
  0x24, 0x00, 0x00, 0x00, 0x10, 0x00, 0x00, 0x00, 0x0c, 0x00, 0x10, 0x00,
  0x00, 0x00, 0x04, 0x00, 0x08, 0x00, 0x0f, 0x00, 0x0c, 0x00, 0x00, 0x00,
  0x01, 0x00, 0x00, 0x00, 0x01, 0x00, 0x00, 0x00, 0x00, 0x00, 0x00, 0x01,
  0x01, 0x00, 0x00, 0x00, 0x0a, 0x00, 0x00, 0x00, 0x03, 0x00, 0x00, 0x00,
  0x00, 0x00, 0x00, 0x00, 0x08, 0x00, 0x00, 0x00, 0x01, 0x00, 0x00, 0x00,
  0x0c, 0x00, 0x10, 0x00, 0x0b, 0x00, 0x00, 0x00, 0x0c, 0x00, 0x04, 0x00,
  0x0c, 0x00, 0x00, 0x00, 0x03, 0x00, 0x00, 0x00, 0x00, 0x00, 0x00, 0x03,
  0x01, 0x00, 0x00, 0x00, 0xac, 0xd4, 0xff, 0xff, 0x14, 0x00, 0x00, 0x00,
  0x0b, 0x00, 0x00, 0x00, 0x20, 0x00, 0x00, 0x00, 0xb0, 0x00, 0x00, 0x00,
  0x98, 0x00, 0x00, 0x00, 0x04, 0x00, 0x00, 0x00, 0x01, 0x00, 0x00, 0x00,
  0x40, 0x00, 0x00, 0x00, 0x03, 0x00, 0x00, 0x00, 0x08, 0x00, 0x00, 0x00,
  0x7b, 0x00, 0x00, 0x00, 0x73, 0x65, 0x71, 0x75, 0x65, 0x6e, 0x74, 0x69,
  0x61, 0x6c, 0x2f, 0x63, 0x6f, 0x6e, 0x76, 0x32, 0x64, 0x2f, 0x52, 0x65,
  0x6c, 0x75, 0x3b, 0x73, 0x65, 0x71, 0x75, 0x65, 0x6e, 0x74, 0x69, 0x61,
  0x6c, 0x2f, 0x63, 0x6f, 0x6e, 0x76, 0x32, 0x64, 0x2f, 0x42, 0x69, 0x61,
  0x73, 0x41, 0x64, 0x64, 0x3b, 0x73, 0x65, 0x71, 0x75, 0x65, 0x6e, 0x74,
  0x69, 0x61, 0x6c, 0x2f, 0x63, 0x6f, 0x6e, 0x76, 0x32, 0x64, 0x2f, 0x43,
  0x6f, 0x6e, 0x76, 0x32, 0x44, 0x3b, 0x73, 0x65, 0x71, 0x75, 0x65, 0x6e,
  0x74, 0x69, 0x61, 0x6c, 0x2f, 0x63, 0x6f, 0x6e, 0x76, 0x32, 0x64, 0x2f,
  0x42, 0x69, 0x61, 0x73, 0x41, 0x64, 0x64, 0x2f, 0x52, 0x65, 0x61, 0x64,
  0x56, 0x61, 0x72, 0x69, 0x61, 0x62, 0x6c, 0x65, 0x4f, 0x70, 0x2f, 0x72,
  0x65, 0x73, 0x6f, 0x75, 0x72, 0x63, 0x65, 0x00, 0x04, 0x00, 0x00, 0x00,
  0xff, 0xff, 0xff, 0xff, 0x40, 0x00, 0x00, 0x00, 0x03, 0x00, 0x00, 0x00,
  0x08, 0x00, 0x00, 0x00, 0x00, 0xd5, 0xff, 0xff, 0x0a, 0xd6, 0xff, 0xff,
  0x04, 0x00, 0x00, 0x00, 0x00, 0x08, 0x00, 0x00, 0x4e, 0x3b, 0x2b, 0xbe,
  0x6c, 0x15, 0xdd, 0x3d, 0xab, 0xd6, 0x1e, 0xbe, 0xe9, 0x9f, 0x52, 0xbe,
  0xb3, 0xfb, 0x0d, 0xbe, 0xf8, 0xb5, 0x30, 0xbe, 0xb3, 0x91, 0x6c, 0xbd,
  0x55, 0x31, 0xf1, 0xbd, 0x83, 0xfd, 0x05, 0xbe, 0xf6, 0xd1, 0xbf, 0x3b,
  0x86, 0x32, 0xa0, 0xbd, 0x94, 0x15, 0xa6, 0xbd, 0xb4, 0x0b, 0xd1, 0xbd,
  0x06, 0x81, 0xbe, 0xbd, 0x98, 0xcc, 0xb1, 0x3c, 0x31, 0x15, 0x5b, 0xbd,
  0x27, 0xba, 0x5c, 0xbd, 0x25, 0xfc, 0xff, 0x3d, 0x73, 0xd2, 0x81, 0xbd,
  0xe6, 0x29, 0x87, 0x3d, 0x4b, 0x0c, 0x72, 0xbd, 0xb4, 0xd9, 0x73, 0xbd,
  0x99, 0x7a, 0x4f, 0xbd, 0x01, 0x80, 0x98, 0xbb, 0x3c, 0xb0, 0xc0, 0x3d,
  0x23, 0xe4, 0x43, 0x3d, 0x45, 0xcf, 0xaa, 0x3e, 0x74, 0x4a, 0x96, 0x3e,
  0x21, 0x85, 0x6e, 0x3e, 0xbd, 0xa3, 0xcc, 0x3e, 0xc8, 0x49, 0xf0, 0xbc,
  0xe9, 0x47, 0x52, 0xbd, 0xa7, 0xb2, 0x5a, 0xbc, 0xfb, 0xca, 0xc0, 0xbd,
  0x5a, 0x75, 0x7a, 0xbe, 0xe4, 0x7d, 0x80, 0xbe, 0x14, 0x4a, 0x5b, 0xbe,
  0x0a, 0x7f, 0xdd, 0xbd, 0xb7, 0xe7, 0xa9, 0xbd, 0xce, 0x39, 0x86, 0xbe,
  0x8d, 0xa2, 0xd5, 0x3d, 0xec, 0xeb, 0xee, 0x3d, 0xf0, 0x26, 0x8f, 0xbd,
  0xc9, 0xaa, 0x10, 0x3d, 0xa4, 0xf1, 0x14, 0xbc, 0x51, 0xf3, 0xc3, 0x3d,
  0xad, 0x11, 0x86, 0x3b, 0x00, 0xc0, 0x49, 0xbe, 0xd8, 0x04, 0xee, 0xbc,
  0xca, 0xb6, 0xb9, 0x3c, 0x40, 0x22, 0x1e, 0xbe, 0x1b, 0x3b, 0x03, 0xbe,
  0x63, 0xb8, 0x00, 0xbe, 0x67, 0x71, 0x1d, 0xbe, 0xc5, 0x37, 0x07, 0x3f,
  0x28, 0x0c, 0x47, 0xbe, 0x96, 0x85, 0x32, 0x3c, 0xc7, 0x78, 0xfe, 0x3c,
  0x46, 0x3d, 0x1f, 0xbe, 0xf7, 0xf9, 0x7b, 0xbd, 0x17, 0xf1, 0xce, 0xbb,
  0x0d, 0xf3, 0x9c, 0xbc, 0x44, 0x43, 0x5c, 0xbc, 0x08, 0x61, 0x37, 0xbe,
  0xba, 0xd1, 0xe5, 0xbc, 0xd9, 0xc6, 0x07, 0x3e, 0x07, 0x95, 0x41, 0x3e,
  0xb7, 0x24, 0x94, 0xbe, 0x7c, 0x59, 0xb8, 0xbe, 0xf9, 0xc1, 0x81, 0x3e,
  0x80, 0x39, 0xa4, 0xbe, 0x8f, 0xa0, 0xeb, 0x3d, 0x18, 0x51, 0x61, 0x3d,
  0xd2, 0xdc, 0xb1, 0x3d, 0x56, 0xe6, 0x4f, 0x3d, 0xc1, 0x9d, 0x99, 0xbe,
  0x27, 0x07, 0xa0, 0x3d, 0xaf, 0xa1, 0xde, 0xbe, 0x8f, 0x62, 0xcf, 0xbe,
  0x68, 0x3b, 0x8a, 0xbd, 0x08, 0x8d, 0x70, 0x3e, 0xd6, 0x31, 0xbf, 0xbd,
  0xea, 0xa9, 0x09, 0x3e, 0xd0, 0xed, 0xac, 0xbe, 0xe4, 0x5a, 0x68, 0xbe,
  0xb3, 0x8f, 0x89, 0xbd, 0x4d, 0x55, 0x72, 0xbe, 0x29, 0xf1, 0x70, 0x3e,
  0x6f, 0x62, 0x78, 0x3d, 0x85, 0x24, 0xd8, 0x3e, 0xd4, 0x99, 0x06, 0xbe,
  0xbb, 0x9f, 0x9a, 0xbe, 0xf9, 0xf7, 0xb5, 0xbe, 0xe5, 0xdb, 0x67, 0xbc,
  0x80, 0x6a, 0x44, 0x3e, 0xcf, 0xfc, 0x12, 0xbe, 0x9e, 0x8d, 0x95, 0x3d,
  0xdf, 0xa8, 0x20, 0xbe, 0xe8, 0x8a, 0xa9, 0x3e, 0x74, 0xa4, 0x2b, 0x3e,
  0x4c, 0xc1, 0x20, 0x3e, 0xf5, 0xc8, 0x00, 0x3e, 0x44, 0x48, 0x97, 0x3b,
  0x06, 0x1f, 0x00, 0x3d, 0xc9, 0x9e, 0x85, 0x3e, 0x46, 0x8d, 0x8d, 0xbd,
  0xa1, 0xf6, 0x81, 0x3b, 0xbf, 0x57, 0x68, 0xbd, 0xa4, 0xc4, 0x3f, 0xbc,
  0x5a, 0x09, 0x04, 0x3e, 0xd8, 0x25, 0x05, 0xbe, 0x9e, 0x47, 0x50, 0xbc,
  0xfa, 0x21, 0x07, 0xbe, 0x69, 0x10, 0x63, 0xbc, 0xff, 0x02, 0x04, 0xbe,
  0x91, 0x20, 0xe3, 0xbd, 0xc4, 0xf1, 0xad, 0xbc, 0x09, 0x2f, 0xa2, 0xbd,
  0x2e, 0x9a, 0xd3, 0xbd, 0x83, 0x12, 0x07, 0xbe, 0x76, 0x1e, 0x6c, 0xbe,
  0xda, 0x80, 0xbf, 0x3d, 0xd4, 0x5a, 0x59, 0xbe, 0xff, 0x1d, 0x51, 0xbe,
  0x9d, 0x18, 0x0c, 0xbe, 0x15, 0x9f, 0x51, 0xbe, 0x68, 0x89, 0x07, 0xbe,
  0x55, 0x0d, 0x16, 0xbe, 0x35, 0x74, 0xfb, 0xbd, 0x9e, 0x16, 0x13, 0x3e,
  0x5a, 0x50, 0xb9, 0xbe, 0x9d, 0x29, 0xee, 0xbe, 0xa7, 0x65, 0x4c, 0xbe,
  0x46, 0x4f, 0x9d, 0x3d, 0x96, 0x57, 0xd1, 0x3d, 0x91, 0x79, 0x04, 0xbe,
  0xe5, 0x42, 0xf8, 0xbe, 0x4f, 0x45, 0x45, 0x3e, 0x8d, 0x15, 0xa1, 0xbe,
  0x99, 0xf4, 0x1d, 0x3d, 0x0e, 0x5c, 0x15, 0xbf, 0x5c, 0x0d, 0x38, 0xbf,
  0xfa, 0x23, 0xfc, 0xbe, 0x06, 0x18, 0x1b, 0xbf, 0x3b, 0xff, 0x3d, 0x3e,
  0x84, 0x21, 0x45, 0x3e, 0xbc, 0xfa, 0x88, 0x3e, 0x6d, 0xd9, 0x27, 0x3e,
  0x8a, 0x87, 0x3f, 0x3e, 0x06, 0x75, 0xfd, 0x3d, 0x31, 0x67, 0x1a, 0xbe,
  0x3f, 0x6b, 0xef, 0x3c, 0xc1, 0xe2, 0xb7, 0x3d, 0xde, 0x7c, 0x7f, 0xbd,
  0x97, 0x1a, 0xad, 0x3d, 0xc9, 0x43, 0x82, 0x3d, 0xb6, 0x03, 0x24, 0x3d,
  0xb5, 0x45, 0x2b, 0xbb, 0x32, 0x83, 0xc8, 0xbd, 0x49, 0x11, 0x00, 0x3e,
  0xb2, 0xfa, 0x22, 0xbd, 0x65, 0x80, 0x11, 0x3f, 0x45, 0xc6, 0xe6, 0xbc,
  0x2a, 0x9d, 0xba, 0xbd, 0x23, 0x23, 0xb6, 0xbd, 0xdd, 0xb6, 0x95, 0x3d,
  0x02, 0x1e, 0xc0, 0x3d, 0x6f, 0x68, 0xc3, 0xbd, 0xdd, 0xd9, 0xb6, 0xbc,
  0xb6, 0xbd, 0x90, 0x3e, 0x5a, 0xdd, 0x27, 0xbe, 0x6c, 0x49, 0x4b, 0xbe,
  0x9b, 0xf6, 0xc3, 0xbd, 0xe2, 0xde, 0xa2, 0xbd, 0xd8, 0xba, 0x72, 0xbc,
  0x42, 0xf4, 0xe3, 0xbd, 0x15, 0x4d, 0x34, 0x3e, 0xd7, 0x66, 0x62, 0x3d,
  0xd5, 0x3c, 0x0d, 0xbe, 0x82, 0xf4, 0xa1, 0xbd, 0x2d, 0xf2, 0xc3, 0xbd,
  0xe8, 0xb9, 0x8e, 0x3d, 0x2e, 0x56, 0x7a, 0xbd, 0x3c, 0x6d, 0x22, 0xbe,
  0x99, 0xfd, 0xa1, 0x3c, 0x24, 0x23, 0x79, 0x3e, 0xa0, 0x71, 0x37, 0xbd,
  0x50, 0x6d, 0x9e, 0x3e, 0x28, 0x5f, 0xcb, 0xbc, 0x4d, 0x41, 0xed, 0x3d,
  0x3a, 0x59, 0xc3, 0xbd, 0x2e, 0xdd, 0x23, 0xbe, 0x03, 0x8f, 0x9e, 0xbe,
  0xe4, 0xde, 0x09, 0xbe, 0xe5, 0x3c, 0x8a, 0xbe, 0x61, 0x72, 0xce, 0x3e,
  0x1f, 0xd7, 0x24, 0xbb, 0x4e, 0x96, 0x14, 0xbf, 0x22, 0xd7, 0x81, 0x3d,
  0xbe, 0xac, 0xf4, 0x3d, 0x60, 0xb6, 0xdb, 0xbe, 0x2f, 0xf3, 0x79, 0x3d,
  0xbc, 0xb3, 0x32, 0xbe, 0x82, 0x46, 0x84, 0x3d, 0x0c, 0x43, 0x19, 0xbe,
  0x2b, 0x75, 0x3f, 0xbd, 0x2b, 0x06, 0xec, 0xbd, 0xde, 0x8d, 0x96, 0xbd,
  0x11, 0x10, 0x1d, 0xbf, 0x3f, 0x66, 0x1e, 0x3d, 0x45, 0xcc, 0x00, 0x3d,
  0xd0, 0x24, 0x44, 0xbe, 0x98, 0xea, 0x86, 0xbd, 0x90, 0x5c, 0x8e, 0xbd,
  0xfb, 0x9c, 0x4f, 0x3a, 0x1b, 0x7d, 0xd1, 0x3b, 0xae, 0x9e, 0x02, 0xbf,
  0x4d, 0x88, 0x99, 0xbc, 0xb8, 0xa2, 0x92, 0xbc, 0x96, 0x6f, 0x4e, 0xbe,
  0xa0, 0xed, 0x2e, 0x3d, 0x5b, 0x26, 0x89, 0x3d, 0xb0, 0x70, 0x8c, 0x3d,
  0x1f, 0xf9, 0x1c, 0x3e, 0xed, 0x63, 0xe7, 0x3e, 0xe1, 0x42, 0x0d, 0x3d,
  0xb0, 0xba, 0x70, 0x3c, 0x39, 0x1b, 0x04, 0x3d, 0xc7, 0x22, 0x4b, 0x3e,
  0xfb, 0xf6, 0xfa, 0x3e, 0x83, 0x1f, 0x21, 0xbd, 0xb1, 0x65, 0xa6, 0x3d,
  0x97, 0xf0, 0x26, 0xbe, 0xc9, 0x5d, 0x47, 0x3d, 0xd8, 0xfc, 0x1a, 0xbc,
  0x52, 0x9c, 0x0e, 0x3d, 0xea, 0xe5, 0xcb, 0xbc, 0x4a, 0x10, 0x0b, 0xbe,
  0x35, 0xdf, 0xc1, 0xbd, 0x22, 0x34, 0x89, 0xbd, 0xe4, 0x94, 0x22, 0xbe,
  0xe7, 0xc2, 0x44, 0x3e, 0x55, 0xdb, 0xad, 0xbd, 0x0d, 0x72, 0xd5, 0xbd,
  0xde, 0x09, 0x06, 0xbd, 0x15, 0x7d, 0xd5, 0xbd, 0x6b, 0xc4, 0xb8, 0xbd,
  0x52, 0xe1, 0xcb, 0xbd, 0x18, 0x53, 0x37, 0xbe, 0x19, 0x6d, 0xe6, 0xbc,
  0x52, 0xb0, 0xfc, 0xbd, 0x43, 0xe6, 0x3c, 0xbe, 0xc2, 0x53, 0xc6, 0xbd,
  0x8e, 0x19, 0x0c, 0xbe, 0xc4, 0x7d, 0xa5, 0xbc, 0xda, 0xd0, 0x02, 0xbe,
  0x3a, 0x93, 0xcd, 0x3d, 0xdd, 0x39, 0x38, 0x3e, 0x5e, 0x8d, 0x9d, 0xbd,
  0xa9, 0xb6, 0xf0, 0xbb, 0xbc, 0x93, 0x35, 0xbd, 0x07, 0x84, 0x83, 0xbc,
  0x1e, 0xdf, 0xc1, 0x3e, 0x61, 0x86, 0xd9, 0x3d, 0xbb, 0x83, 0x9b, 0xbe,
  0x95, 0x54, 0x83, 0x3e, 0xfe, 0xf9, 0x37, 0xbf, 0xeb, 0x4a, 0x11, 0xbf,
  0xb3, 0x29, 0x16, 0xbf, 0x47, 0x82, 0x9f, 0xbe, 0x6a, 0x43, 0x3c, 0xbe,
  0xdb, 0x25, 0x2b, 0xbe, 0xfb, 0xcf, 0x4a, 0xbe, 0xb4, 0x40, 0xd9, 0xbd,
  0x2e, 0xd6, 0x9b, 0x3c, 0x39, 0x79, 0x07, 0x3e, 0x6e, 0x1c, 0xaa, 0xbd,
  0x08, 0x10, 0x2d, 0xbe, 0x67, 0x39, 0x6b, 0xbe, 0xd1, 0xe3, 0xa5, 0xbe,
  0xbf, 0xf2, 0x8a, 0x3d, 0x92, 0xf0, 0x2a, 0x3d, 0x34, 0x89, 0x01, 0x3e,
  0x9e, 0xc1, 0xda, 0x3d, 0xdf, 0x87, 0x1d, 0x3e, 0x29, 0xae, 0x2d, 0x3e,
  0x10, 0xbe, 0xe9, 0xbd, 0xe8, 0x34, 0x42, 0x3c, 0xec, 0x2c, 0x14, 0xbe,
  0x91, 0xbb, 0x8e, 0xbe, 0xc4, 0x4f, 0x0e, 0xbe, 0x63, 0x9c, 0x94, 0xbd,
  0x0a, 0x1d, 0x89, 0xbd, 0xda, 0x2b, 0x0f, 0xbe, 0x92, 0xe7, 0x8d, 0x3e,
  0x10, 0x83, 0xa3, 0x3c, 0xf8, 0x19, 0xf8, 0xbb, 0x35, 0x61, 0x31, 0xbe,
  0xa6, 0x11, 0xa2, 0x3d, 0x30, 0x65, 0x99, 0x3d, 0xf2, 0x9d, 0x1e, 0xbc,
  0xaa, 0x89, 0x36, 0x3e, 0xd5, 0xac, 0x01, 0x3e, 0x09, 0x6c, 0xe6, 0x3c,
  0x7a, 0x56, 0xf1, 0xbb, 0x87, 0x95, 0x72, 0xbe, 0xf8, 0x7a, 0x89, 0x3e,
  0x7c, 0x16, 0xb5, 0xbb, 0xd6, 0x5e, 0x38, 0x3c, 0x32, 0xb1, 0x9c, 0xbc,
  0x76, 0xcc, 0x91, 0xbd, 0xe1, 0x01, 0x86, 0x3d, 0x3e, 0x81, 0x37, 0xbd,
  0xda, 0x35, 0x8d, 0xbe, 0x8c, 0x00, 0x02, 0xbd, 0x9c, 0x63, 0x9b, 0x3d,
  0x36, 0xe4, 0x3c, 0x3e, 0x55, 0x46, 0x31, 0xbd, 0x88, 0x44, 0x22, 0x3c,
  0x15, 0xe9, 0x97, 0xbd, 0xdb, 0x35, 0x0e, 0x3e, 0xe5, 0x3d, 0x36, 0x3e,
  0x28, 0x05, 0x83, 0xbe, 0x1d, 0x75, 0x14, 0xbe, 0x69, 0x29, 0x9f, 0xbe,
  0x80, 0x68, 0x82, 0xbd, 0xec, 0x33, 0x5a, 0xbe, 0xa0, 0xbc, 0x1b, 0x3b,
  0x66, 0x7a, 0x5b, 0x3e, 0x77, 0xa0, 0x83, 0x3d, 0x0c, 0x2a, 0x48, 0xbd,
  0x3e, 0xfa, 0x66, 0x3d, 0x91, 0x55, 0xf8, 0xbe, 0x31, 0xeb, 0x9d, 0xbe,
  0xf5, 0x45, 0x1c, 0xbe, 0x6e, 0xef, 0xdf, 0xbe, 0x0b, 0x4f, 0xfc, 0x3c,
  0x7b, 0x2e, 0x19, 0xbb, 0x29, 0x04, 0xbf, 0xbe, 0xff, 0xc5, 0xcc, 0xbd,
  0x3f, 0xc9, 0xb5, 0xbe, 0x59, 0x11, 0x5d, 0xbd, 0xba, 0x4d, 0x26, 0xbe,
  0xbd, 0x09, 0x81, 0xbd, 0xc1, 0x2b, 0x08, 0xbe, 0xe9, 0x3e, 0x93, 0x3b,
  0xa3, 0x34, 0x85, 0xbe, 0xbe, 0x12, 0x37, 0xbe, 0x3f, 0x79, 0x1a, 0xbf,
  0x63, 0x10, 0x4a, 0xbe, 0x52, 0xef, 0xa5, 0x3e, 0x47, 0x35, 0x71, 0xbe,
  0x6c, 0x50, 0xc6, 0xbd, 0xf3, 0xa4, 0xb4, 0x3e, 0x05, 0x07, 0x32, 0xbe,
  0x88, 0x05, 0x9c, 0xbe, 0x53, 0xda, 0xb9, 0xbe, 0xf4, 0xb3, 0xeb, 0xbc,
  0xce, 0xdb, 0x9d, 0xbd, 0x44, 0xce, 0x5a, 0xbe, 0x44, 0x05, 0x6a, 0xbd,
  0xa0, 0x31, 0x6a, 0x3e, 0x59, 0x08, 0x1a, 0x3d, 0xfa, 0x7f, 0x08, 0x3f,
  0x48, 0x69, 0x41, 0xbe, 0x50, 0xba, 0x58, 0x3d, 0xd3, 0xf4, 0xc1, 0xbd,
  0x10, 0x58, 0x35, 0xbe, 0x50, 0x2a, 0xd6, 0x3e, 0x8d, 0x5f, 0xc3, 0x3d,
  0x0e, 0x24, 0xb6, 0xbe, 0x96, 0x71, 0x18, 0xbf, 0x12, 0x85, 0x1d, 0xbf,
  0xa6, 0x8d, 0x05, 0xbf, 0x18, 0xa1, 0xc7, 0xbc, 0xa3, 0xae, 0xc5, 0x3d,
  0x47, 0xb1, 0xe6, 0xbd, 0x4a, 0x32, 0x13, 0xbe, 0xfd, 0x30, 0x14, 0xbf,
  0x82, 0x20, 0x4c, 0xbf, 0x65, 0xc9, 0x50, 0xbf, 0xd2, 0x14, 0xa8, 0xbd,
  0x51, 0x68, 0x84, 0x3e, 0x26, 0x06, 0x06, 0xbd, 0x4b, 0xb8, 0xbb, 0x3e,
  0x51, 0x96, 0xc2, 0x3e, 0xb6, 0xd6, 0x02, 0x3b, 0x3c, 0xf1, 0xf6, 0x3d,
  0xe6, 0x84, 0xdf, 0x3d, 0xb2, 0xd0, 0x16, 0x3d, 0x07, 0xd9, 0xf0, 0xbd,
  0x90, 0xf8, 0xe5, 0x3d, 0x51, 0x0b, 0x6d, 0xbe, 0x98, 0x6c, 0x1f, 0xbe,
  0x63, 0xa6, 0x3f, 0xbe, 0x6e, 0x55, 0x93, 0xbe, 0x35, 0x32, 0xb1, 0xbd,
  0x1a, 0xca, 0x94, 0xbe, 0x3d, 0x26, 0xfe, 0xbd, 0x43, 0x6f, 0x6d, 0xbd,
  0x44, 0x2b, 0x44, 0xbe, 0x77, 0xfc, 0x6e, 0x3d, 0xa7, 0xd7, 0x42, 0xbd,
  0xe2, 0x5f, 0x0b, 0xbd, 0x36, 0x77, 0x3d, 0xbe, 0x05, 0x9c, 0xb5, 0xbd,
  0x00, 0xae, 0xd3, 0x3d, 0x08, 0xd0, 0xc6, 0xbd, 0x5b, 0xcd, 0x07, 0xbe,
  0x2a, 0x23, 0xe5, 0xbd, 0x60, 0x11, 0xe1, 0xbc, 0x97, 0x84, 0x15, 0xbf,
  0x5a, 0xf9, 0x9f, 0xbe, 0xf1, 0x7d, 0x44, 0xbe, 0xf4, 0xbc, 0x21, 0xbc,
  0xb6, 0xe2, 0xdd, 0xbd, 0xd9, 0xfb, 0x83, 0xbe, 0xb9, 0xa3, 0x1c, 0x3e,
  0x9b, 0xc1, 0x85, 0xbd, 0x57, 0xc9, 0x46, 0xbe, 0xa2, 0xd0, 0x07, 0xbe,
  0xe2, 0xed, 0x17, 0xbe, 0x2f, 0x57, 0x86, 0xbd, 0x5f, 0x05, 0x5e, 0xbd,
  0x5d, 0xdb, 0x7b, 0xbe, 0xe7, 0x72, 0x80, 0x3d, 0x3c, 0x64, 0x35, 0xbe,
  0x06, 0x7f, 0x74, 0xbe, 0xf9, 0xca, 0x69, 0xbe, 0xcb, 0xc4, 0x69, 0xbe,
  0xc5, 0x26, 0x75, 0xbd, 0xeb, 0xf1, 0xc3, 0xbd, 0xbd, 0xbe, 0xaf, 0x3c,
  0x8d, 0x4b, 0x46, 0x3e, 0xaf, 0xd5, 0x8d, 0x3c, 0x49, 0x29, 0x95, 0xb8,
  0x46, 0xf5, 0x8c, 0xbd, 0xc1, 0x0f, 0x13, 0xbe, 0x98, 0xcf, 0x2b, 0x3e,
  0x62, 0xda, 0x46, 0xbc, 0xc5, 0x26, 0xcf, 0x3d, 0xa6, 0x4c, 0x32, 0xbc,
  0x52, 0x3d, 0x3f, 0x3e, 0xdf, 0x7c, 0x07, 0x3e, 0xb5, 0xc9, 0x9c, 0x3e,
  0x70, 0x14, 0xae, 0x3e, 0xdd, 0x95, 0xa2, 0xbb, 0x23, 0x4e, 0xfd, 0x3c,
  0x78, 0x4f, 0x52, 0xbe, 0xbd, 0xca, 0x43, 0x3e, 0xc5, 0x56, 0x0c, 0x3d,
  0x45, 0x17, 0xb0, 0xbd, 0x4a, 0xf7, 0x50, 0x3e, 0x89, 0xae, 0x8e, 0xbc,
  0x08, 0xa1, 0xbe, 0x3c, 0x67, 0xd5, 0x30, 0x3c, 0x3d, 0xdd, 0xcb, 0xbe,
  0x79, 0xfd, 0xac, 0x3e, 0x82, 0x37, 0x49, 0xbe, 0xc7, 0x6a, 0xde, 0x3e,
  0xfc, 0xa6, 0x67, 0xbe, 0x40, 0x0a, 0xfa, 0xbe, 0xa7, 0x23, 0x31, 0xbe,
  0xd0, 0x12, 0x59, 0xbe, 0xb7, 0x7a, 0x7e, 0xbe, 0x2e, 0xfd, 0xd7, 0x3d,
  0x25, 0x5e, 0x0b, 0xbd, 0xf7, 0x07, 0xdf, 0x3e, 0x85, 0x99, 0x3d, 0x3c,
  0xed, 0xa4, 0xd5, 0xbc, 0xe8, 0x03, 0x05, 0xbe, 0x10, 0x2a, 0x4d, 0x3b,
  0xfa, 0x2b, 0x16, 0xbe, 0x96, 0x41, 0x03, 0x3e, 0x6a, 0x76, 0xa8, 0x3e,
  0xa8, 0xf6, 0x2a, 0xbd, 0xad, 0x15, 0xca, 0x3d, 0xe0, 0xf9, 0x9a, 0xbd,
  0xb9, 0xf0, 0xb1, 0xbd, 0xd5, 0x03, 0xdb, 0xbc, 0x41, 0xb3, 0x99, 0xbe,
  0x5a, 0x9d, 0xb1, 0xbd, 0xe7, 0x26, 0xd3, 0xbc, 0xb4, 0x7d, 0x87, 0xbe,
  0x59, 0x71, 0xc1, 0xbd, 0x16, 0x0a, 0x1d, 0x3e, 0x69, 0x7a, 0xca, 0xbc,
  0x98, 0x61, 0x25, 0xbe, 0x22, 0x10, 0x0c, 0xbf, 0x4d, 0x06, 0x97, 0x3e,
  0x16, 0x7a, 0x15, 0xbf, 0x55, 0x10, 0x22, 0xbf, 0x0a, 0x88, 0x0c, 0xbf,
  0x1a, 0xea, 0xca, 0x3d, 0x68, 0xfe, 0x92, 0xbb, 0x17, 0xae, 0x11, 0xbe,
  0x9b, 0x12, 0xe2, 0xbe, 0x72, 0xfe, 0x80, 0x3e, 0xdc, 0x6f, 0x89, 0xbd,
  0x90, 0xd8, 0x78, 0x3e, 0x4a, 0xe7, 0xfe, 0xbd, 0x12, 0xd6, 0x65, 0xbe,
  0xee, 0x19, 0x9f, 0xbd, 0x5f, 0x31, 0x08, 0x3d, 0x02, 0xef, 0x8c, 0xbd,
  0x85, 0x84, 0x90, 0x3c, 0x37, 0xac, 0x93, 0x3e, 0x03, 0x28, 0xfe, 0x3d,
  0x5a, 0x60, 0x08, 0x3e, 0x91, 0xda, 0x0e, 0xbc, 0xbe, 0x28, 0xcf, 0xbc,
  0x2d, 0x95, 0x4f, 0x3d, 0xe2, 0xdd, 0xff, 0xff, 0x10, 0x00, 0x00, 0x00,
  0x0a, 0x00, 0x00, 0x00, 0x1c, 0x00, 0x00, 0x00, 0x38, 0x00, 0x00, 0x00,
  0x04, 0x00, 0x00, 0x00, 0x10, 0x00, 0x00, 0x00, 0x04, 0x00, 0x00, 0x00,
  0x01, 0x00, 0x00, 0x00, 0x08, 0x00, 0x00, 0x00, 0x1a, 0x00, 0x00, 0x00,
  0x73, 0x65, 0x71, 0x75, 0x65, 0x6e, 0x74, 0x69, 0x61, 0x6c, 0x2f, 0x63,
  0x6f, 0x6e, 0x76, 0x32, 0x64, 0x5f, 0x31, 0x2f, 0x43, 0x6f, 0x6e, 0x76,
  0x32, 0x44, 0x00, 0x00, 0x58, 0xdd, 0xff, 0xff, 0x62, 0xde, 0xff, 0xff,
  0x04, 0x00, 0x00, 0x00, 0x80, 0x01, 0x00, 0x00, 0x61, 0x83, 0x1d, 0x3e,
  0x1b, 0x96, 0xca, 0x3d, 0xf1, 0x8d, 0xad, 0xbe, 0xb9, 0xf7, 0x9c, 0xbd,
  0x54, 0x39, 0x57, 0x3e, 0x28, 0x9b, 0x02, 0xbe, 0xdc, 0x78, 0x3a, 0xbe,
  0xb3, 0x46, 0xab, 0xbe, 0x5c, 0x13, 0x07, 0x3c, 0xa7, 0xcd, 0x14, 0x3e,
  0xf8, 0x25, 0x89, 0xbe, 0xb1, 0x5b, 0xf3, 0x3d, 0x78, 0xbf, 0x07, 0xbe,
  0x8f, 0xd6, 0x52, 0x3d, 0x39, 0xf0, 0xaf, 0x3e, 0x15, 0xbb, 0x60, 0xbe,
  0xaf, 0x27, 0x73, 0xbe, 0xda, 0x2c, 0x94, 0x3e, 0x6f, 0x3e, 0xc3, 0x3d,
  0xcd, 0xc6, 0x1c, 0xbd, 0x75, 0x33, 0x6c, 0xbe, 0x47, 0x23, 0x90, 0x3e,
  0xd2, 0x13, 0x44, 0x3e, 0xd5, 0xc1, 0xe0, 0xbe, 0x1c, 0x9e, 0x6a, 0x3c,
  0x67, 0x7f, 0xa1, 0xbd, 0x37, 0x9e, 0x12, 0x3e, 0x89, 0xdb, 0xa6, 0xbc,
  0x54, 0x2d, 0xa2, 0xbd, 0x3e, 0x9a, 0x39, 0xbd, 0xd8, 0x38, 0x8b, 0xbd,
  0x60, 0xd0, 0xc1, 0xbd, 0x5b, 0x31, 0x66, 0x3c, 0x08, 0xf2, 0xf5, 0xbd,
  0xf3, 0x62, 0xf1, 0xbd, 0xdf, 0xa5, 0x1a, 0x3d, 0x28, 0x61, 0x28, 0x3e,
  0xd3, 0xba, 0x7a, 0x3e, 0xcd, 0x68, 0xc9, 0x3e, 0xb0, 0xdd, 0x3a, 0xbd,
  0xfe, 0x3f, 0x14, 0x3d, 0x2c, 0x81, 0xd1, 0xbd, 0x5e, 0xb8, 0xdc, 0xbd,
  0x94, 0xae, 0xd1, 0xbe, 0x18, 0xf3, 0x7d, 0xbd, 0x02, 0xa5, 0x4c, 0xbe,
  0x4c, 0x70, 0x82, 0xbc, 0x69, 0x34, 0x92, 0xbc, 0xfd, 0x94, 0x32, 0xbd,
  0x88, 0x3e, 0x71, 0xbe, 0x5a, 0x3c, 0x11, 0x3e, 0x68, 0xe0, 0xb1, 0xbd,
  0x06, 0x27, 0xcd, 0xbc, 0xb5, 0x77, 0x85, 0x3d, 0xf2, 0xb3, 0x71, 0xbd,
  0x74, 0xc7, 0xfa, 0xbc, 0xa5, 0x2a, 0x9c, 0xbc, 0x14, 0x91, 0x05, 0xbe,
  0x7b, 0x7d, 0x9c, 0x3b, 0xcc, 0x50, 0x38, 0x3d, 0xe1, 0x08, 0x2b, 0xbe,
  0x4e, 0xb7, 0xf7, 0x3d, 0x71, 0xc0, 0x9c, 0xbe, 0x6d, 0xa0, 0x26, 0xbd,
  0x4d, 0x09, 0xa7, 0x3c, 0x3d, 0x8f, 0x4c, 0xbe, 0xc6, 0xc1, 0x61, 0x3d,
  0x2c, 0x97, 0x50, 0xbe, 0x87, 0xd5, 0x30, 0x3d, 0x2e, 0x64, 0x8d, 0xbd,
  0x1e, 0xff, 0x28, 0xbe, 0xd6, 0xa9, 0x27, 0x3e, 0x1e, 0xa4, 0x1e, 0xbe,
  0x70, 0x11, 0x75, 0x3d, 0x24, 0xbc, 0x59, 0xbe, 0xbd, 0xf8, 0xa9, 0xbd,
  0x87, 0xe2, 0x27, 0x3d, 0x69, 0x3a, 0x20, 0xbe, 0xc4, 0x2b, 0x26, 0xbe,
  0x4f, 0x35, 0x87, 0xbd, 0x3a, 0xd7, 0x17, 0xbe, 0x3d, 0xf9, 0xdd, 0xbc,
  0x84, 0x18, 0x11, 0x3e, 0x72, 0x78, 0x61, 0xbe, 0x09, 0x50, 0x08, 0xbe,
  0x85, 0x0c, 0x10, 0xbe, 0x17, 0x15, 0x5a, 0x3e, 0x61, 0x67, 0xd4, 0x3d,
  0xb3, 0x77, 0x24, 0xbe, 0xe0, 0x28, 0xf6, 0x3c, 0xbe, 0xd0, 0x9d, 0xbd,
  0xb5, 0x94, 0x50, 0xbd, 0x39, 0x3a, 0x0f, 0x3d, 0x55, 0xea, 0x3b, 0x3d,
  0xe3, 0xd2, 0xb9, 0xbd, 0xfd, 0x76, 0x6e, 0x3c, 0xba, 0xdf, 0xff, 0xff,
  0x10, 0x00, 0x00, 0x00, 0x09, 0x00, 0x00, 0x00, 0x1c, 0x00, 0x00, 0x00,
  0x38, 0x00, 0x00, 0x00, 0x04, 0x00, 0x00, 0x00, 0x08, 0x00, 0x00, 0x00,
  0x04, 0x00, 0x00, 0x00, 0x03, 0x00, 0x00, 0x00, 0x01, 0x00, 0x00, 0x00,
  0x18, 0x00, 0x00, 0x00, 0x73, 0x65, 0x71, 0x75, 0x65, 0x6e, 0x74, 0x69,
  0x61, 0x6c, 0x2f, 0x63, 0x6f, 0x6e, 0x76, 0x32, 0x64, 0x2f, 0x43, 0x6f,
  0x6e, 0x76, 0x32, 0x44, 0x00, 0x00, 0x00, 0x00, 0x30, 0xdf, 0xff, 0xff,
  0x3a, 0xe0, 0xff, 0xff, 0x04, 0x00, 0x00, 0x00, 0x00, 0x01, 0x00, 0x00,
  0x37, 0x65, 0xd4, 0xbd, 0x53, 0x5d, 0xde, 0xbc, 0xe7, 0x2b, 0xf7, 0x3e,
  0xa0, 0x08, 0x77, 0xbd, 0x47, 0x3f, 0x81, 0x3e, 0xca, 0xf0, 0x3a, 0xbf,
  0xe1, 0xe0, 0x74, 0x3e, 0xb2, 0x1f, 0x70, 0x3e, 0x37, 0xf7, 0xf4, 0x3d,
  0x9a, 0x31, 0x7e, 0xbd, 0xd9, 0x03, 0x20, 0xbc, 0x4e, 0x3d, 0xb5, 0x3e,
  0x74, 0xf6, 0x64, 0x3e, 0x3b, 0x59, 0x0e, 0x3e, 0xac, 0x66, 0x86, 0xbe,
  0x4c, 0x88, 0xae, 0xbe, 0x99, 0x23, 0xd9, 0xbd, 0xe4, 0xd2, 0xcf, 0x3d,
  0x3b, 0x82, 0xa4, 0xbd, 0x2e, 0xc1, 0x87, 0xbd, 0xb6, 0xcb, 0x99, 0x3e,
  0x9c, 0x56, 0x6b, 0x3e, 0x47, 0x19, 0x2c, 0x3e, 0xb3, 0x69, 0x72, 0x3e,
  0x3e, 0x73, 0x28, 0x3e, 0xd3, 0xc4, 0x71, 0x3c, 0x4f, 0xde, 0x9f, 0xbc,
  0x4c, 0xba, 0xd7, 0x3e, 0x92, 0x2d, 0x97, 0x3e, 0xbb, 0xb3, 0x45, 0x3e,
  0x81, 0x0c, 0x1f, 0xbe, 0xb4, 0xe3, 0xc2, 0xbe, 0x22, 0x08, 0x86, 0xbc,
  0x6c, 0xe0, 0x14, 0x3e, 0x3c, 0x79, 0x1e, 0xbf, 0x0e, 0x82, 0x11, 0xbe,
  0x5f, 0x3d, 0x26, 0x3d, 0x0d, 0x60, 0x88, 0x3e, 0x5b, 0xfa, 0xc9, 0xbe,
  0x19, 0xd3, 0x1c, 0x3e, 0xaa, 0x12, 0x89, 0x3d, 0x05, 0x3f, 0x05, 0xbd,
  0xa8, 0x53, 0x44, 0x3e, 0x4a, 0x1b, 0xc3, 0xbe, 0x9e, 0xc8, 0x24, 0x3e,
  0x17, 0x18, 0x9d, 0x3d, 0xa1, 0xec, 0x90, 0x3d, 0xb1, 0xd0, 0xbe, 0xbe,
  0xa3, 0xf2, 0xbc, 0xbd, 0x9d, 0x23, 0xbf, 0x3d, 0xd1, 0x4d, 0x1f, 0xbf,
  0xf0, 0xb7, 0x38, 0xbe, 0x41, 0xf6, 0x75, 0x3e, 0xa8, 0xdd, 0x71, 0x3e,
  0xc2, 0x86, 0x46, 0x3e, 0x31, 0x39, 0x94, 0x3e, 0x52, 0x77, 0xe4, 0x3d,
  0x32, 0xce, 0x4b, 0xbd, 0x2b, 0x06, 0x27, 0xbe, 0x67, 0xb1, 0x9c, 0x3e,
  0x55, 0xab, 0x55, 0x3e, 0x19, 0x53, 0x56, 0x3e, 0x32, 0xd7, 0x91, 0x3a,
  0x07, 0x92, 0x8a, 0xbe, 0x12, 0xe1, 0xff, 0xff, 0x10, 0x00, 0x00, 0x00,
  0x08, 0x00, 0x00, 0x00, 0x14, 0x00, 0x00, 0x00, 0x30, 0x00, 0x00, 0x00,
  0x02, 0x00, 0x00, 0x00, 0x04, 0x00, 0x00, 0x00, 0x10, 0x00, 0x00, 0x00,
  0x19, 0x00, 0x00, 0x00, 0x73, 0x65, 0x71, 0x75, 0x65, 0x6e, 0x74, 0x69,
  0x61, 0x6c, 0x2f, 0x64, 0x65, 0x6e, 0x73, 0x65, 0x5f, 0x31, 0x2f, 0x4d,
  0x61, 0x74, 0x4d, 0x75, 0x6c, 0x00, 0x00, 0x00, 0x80, 0xe0, 0xff, 0xff,
  0x8a, 0xe1, 0xff, 0xff, 0x04, 0x00, 0x00, 0x00, 0x00, 0x1c, 0x00, 0x00,
  0xca, 0xb5, 0x12, 0xbf, 0x8c, 0xf2, 0x13, 0xbf, 0x70, 0x37, 0x16, 0x3e,
  0xf0, 0x55, 0x32, 0xbe, 0xcb, 0xcc, 0x2e, 0x3e, 0x34, 0xef, 0x12, 0xbe,
  0xe4, 0x77, 0x1c, 0xbf, 0x19, 0x37, 0x8c, 0xbd, 0x94, 0x53, 0xbc, 0xbe,
  0xc5, 0x3b, 0x49, 0xbf, 0x8f, 0xe2, 0x5d, 0x3d, 0xe2, 0x83, 0x3a, 0xbd,
  0x22, 0xaf, 0xbc, 0xbd, 0xd1, 0x77, 0xc2, 0xbe, 0x86, 0x7a, 0xd3, 0xbd,
  0x17, 0x53, 0x46, 0x3d, 0xbb, 0x73, 0x11, 0xbe, 0x43, 0xd7, 0x87, 0x3d,
  0xfe, 0x63, 0xd7, 0x3e, 0x16, 0xf3, 0xaf, 0xbb, 0x80, 0xca, 0xdf, 0x3e,
  0x3f, 0xdd, 0xbb, 0xbd, 0xa6, 0x91, 0x1c, 0xbf, 0xac, 0x31, 0xa6, 0x3d,
  0x52, 0x50, 0x9c, 0x3d, 0x0b, 0xff, 0x44, 0xbf, 0x9b, 0xce, 0xef, 0x3e,
  0xe8, 0x46, 0xba, 0x3d, 0x8c, 0x1c, 0x50, 0x3f, 0xaf, 0x92, 0x4a, 0x3d,
  0x03, 0xf5, 0xe5, 0xbe, 0x46, 0x6d, 0xde, 0x3b, 0x9c, 0x52, 0xe1, 0xbc,
  0x83, 0x42, 0x07, 0x3e, 0x9b, 0x4a, 0x0c, 0x3e, 0x26, 0x9a, 0xce, 0x3b,
  0xd3, 0xfe, 0xc2, 0x3e, 0x87, 0xb5, 0xcf, 0x3c, 0xdc, 0x5f, 0xc8, 0x3c,
  0x29, 0x3f, 0xd6, 0x3d, 0x40, 0x31, 0xe4, 0x3b, 0x82, 0x16, 0xdf, 0xbe,
  0x73, 0x9f, 0xa3, 0x3d, 0x92, 0xc1, 0x4d, 0x3e, 0xdb, 0xdc, 0xd7, 0x3e,
  0x63, 0x78, 0x77, 0x3e, 0xdb, 0x52, 0x5a, 0xbe, 0x52, 0xcd, 0x15, 0x3e,
  0x28, 0xd2, 0x4a, 0xbe, 0xae, 0xe0, 0x1c, 0x3c, 0x54, 0x99, 0x0f, 0xbe,
  0xf4, 0xc4, 0x70, 0xbe, 0xdc, 0xc5, 0xc9, 0x3d, 0xcc, 0xf4, 0xb7, 0xbd,
  0xc1, 0x4d, 0x2a, 0xb9, 0x71, 0xa2, 0x03, 0x3e, 0xd0, 0x3c, 0xc9, 0x3e,
  0xe2, 0x5d, 0xa8, 0xbe, 0x81, 0xf8, 0xc1, 0xbe, 0x52, 0x56, 0xb1, 0xbd,
  0xa1, 0x59, 0x8f, 0x3e, 0xbf, 0x07, 0xfb, 0x3c, 0x2c, 0xde, 0xd6, 0xbd,
  0x49, 0xfe, 0xff, 0xbd, 0x96, 0x02, 0x60, 0xbe, 0xfb, 0x17, 0x56, 0x3d,
  0x6b, 0xba, 0xdb, 0x3c, 0x19, 0x33, 0x8c, 0xbe, 0x1c, 0xb3, 0x07, 0x3e,
  0x52, 0x68, 0xd5, 0x3d, 0x35, 0x56, 0x0b, 0xbd, 0x08, 0x79, 0x35, 0x3e,
  0x33, 0x42, 0x9a, 0x3d, 0xcc, 0x10, 0xcf, 0xbd, 0x61, 0x98, 0x5a, 0xbd,
  0x61, 0xb8, 0x57, 0x3e, 0xa5, 0x70, 0x00, 0x3f, 0x34, 0x09, 0x11, 0x3e,
  0x65, 0x54, 0xbe, 0xbd, 0xa1, 0xc3, 0x3a, 0xbd, 0xfc, 0x33, 0xf7, 0x3c,
  0xe6, 0x18, 0x0c, 0x3e, 0xd6, 0x88, 0x15, 0x3e, 0x07, 0xaa, 0x22, 0x3d,
  0xa7, 0x8c, 0x2c, 0x3e, 0x5d, 0xf6, 0xf6, 0x3b, 0x26, 0xbe, 0x8a, 0x3d,
  0xfb, 0x59, 0x21, 0x3e, 0x66, 0x6b, 0x2d, 0x3e, 0xcd, 0x36, 0x27, 0x3e,
  0x51, 0x72, 0x0f, 0x3e, 0x8c, 0xc3, 0x9b, 0x3e, 0x6d, 0x16, 0x45, 0x3e,
  0xf9, 0x8b, 0x9d, 0x3c, 0xf3, 0x6f, 0xa7, 0xbe, 0x05, 0xae, 0xf3, 0xbd,
  0x92, 0x71, 0x1b, 0xbe, 0x97, 0xe1, 0x45, 0x3e, 0xa7, 0x81, 0x9d, 0x3d,
  0x95, 0xa3, 0x0e, 0xbe, 0xdb, 0x39, 0x0d, 0xbe, 0x22, 0x6b, 0x4a, 0x3e,
  0x66, 0x24, 0x4d, 0x3d, 0x35, 0xdf, 0x30, 0xbe, 0x0e, 0x34, 0xba, 0x3d,
  0x36, 0xa2, 0x75, 0x3e, 0xeb, 0xf8, 0xb0, 0x3e, 0xe7, 0x47, 0x20, 0x3e,
  0xae, 0x88, 0x9b, 0x3e, 0x25, 0x0f, 0xf4, 0x3d, 0xa3, 0x74, 0xab, 0xbe,
  0xf0, 0xca, 0xd0, 0xbe, 0x46, 0x15, 0xfd, 0xbe, 0xbc, 0x87, 0xae, 0xbe,
  0x19, 0x58, 0x25, 0x3e, 0x3d, 0x00, 0x21, 0x3d, 0x36, 0x7f, 0x1c, 0x3e,
  0x53, 0x74, 0xf6, 0xbd, 0x76, 0x86, 0x28, 0xbf, 0x31, 0xac, 0xc2, 0xbc,
  0x55, 0x8b, 0x20, 0x3e, 0x4e, 0x37, 0x51, 0xbf, 0xfb, 0x31, 0xd3, 0x3e,
  0x5e, 0x16, 0x88, 0xbe, 0x18, 0xc2, 0x07, 0x3e, 0x14, 0x9b, 0x41, 0xbe,
  0x2f, 0xa0, 0xca, 0xbd, 0x38, 0x48, 0x0c, 0x3d, 0x7c, 0x9d, 0x1a, 0xbe,
  0xe3, 0xbb, 0x2b, 0x3e, 0xb3, 0x3b, 0x96, 0x3e, 0xff, 0x18, 0xab, 0xbd,
  0x10, 0x17, 0xca, 0x3d, 0xd2, 0xbb, 0xd2, 0x3d, 0x79, 0xfb, 0xbe, 0xbe,
  0xd0, 0xf0, 0x95, 0xbd, 0xc9, 0xc4, 0x31, 0x3c, 0x33, 0xa2, 0x53, 0xbf,
  0xdf, 0xec, 0x08, 0x3e, 0x94, 0x93, 0x9b, 0x3e, 0xb9, 0x98, 0x00, 0x3f,
  0x24, 0x33, 0xad, 0x3e, 0xc7, 0xb1, 0xb9, 0xbe, 0x45, 0xc6, 0x00, 0xbd,
  0x45, 0x58, 0xbd, 0xbd, 0xd4, 0xb0, 0xfb, 0x3c, 0x81, 0x19, 0x86, 0xbc,
  0x40, 0x07, 0xa1, 0xbd, 0x09, 0xfe, 0xd3, 0x3e, 0xe6, 0x3e, 0x44, 0x3b,
  0xee, 0x94, 0x40, 0xbd, 0xfc, 0x88, 0x28, 0x3e, 0xfc, 0xe0, 0xe9, 0x3d,
  0xb1, 0x57, 0xcd, 0xbe, 0x99, 0xa7, 0xc4, 0xbc, 0xf7, 0xec, 0x42, 0x3e,
  0x94, 0xaa, 0xd5, 0x3e, 0x56, 0xef, 0x57, 0x3e, 0x49, 0x1a, 0x52, 0xbe,
  0x11, 0x15, 0x0c, 0xbe, 0x71, 0xd7, 0xb7, 0xbe, 0x4d, 0x5d, 0x97, 0xbd,
  0x16, 0x02, 0x1d, 0xbe, 0x10, 0xec, 0x51, 0xbe, 0x0c, 0xbc, 0x56, 0x3e,
  0x36, 0x58, 0xf7, 0x3c, 0xcb, 0xc2, 0x59, 0xbd, 0x69, 0xfd, 0x25, 0xbd,
  0x0e, 0x76, 0x29, 0x3e, 0xf9, 0x8b, 0x72, 0xbe, 0x5e, 0xee, 0x70, 0xbe,
  0x51, 0x1e, 0x05, 0xbd, 0x25, 0xf0, 0x53, 0x3e, 0xa6, 0x4a, 0x5f, 0x3d,
  0x36, 0x57, 0x96, 0xbe, 0x04, 0x50, 0xab, 0xbe, 0x11, 0x66, 0x92, 0x3c,
  0x63, 0xaa, 0x06, 0x3e, 0xe7, 0xd0, 0x8b, 0xbc, 0xca, 0x73, 0x51, 0xbd,
  0xfe, 0x7c, 0x71, 0x3e, 0x1b, 0xe7, 0xf1, 0xbd, 0x8f, 0xa4, 0x35, 0xbe,
  0x66, 0xe9, 0xb3, 0x3d, 0x66, 0xd2, 0x5c, 0xbc, 0x4e, 0x2e, 0x2e, 0xbe,
  0x9a, 0x66, 0x3b, 0xbe, 0x62, 0x2a, 0x8d, 0x3e, 0x3b, 0xc8, 0xfa, 0x3e,
  0x49, 0x8b, 0x9e, 0x3d, 0xe0, 0x8e, 0x80, 0xbe, 0xb8, 0x6e, 0xb7, 0xbc,
  0x3d, 0x52, 0x95, 0x3d, 0xc4, 0xc4, 0x29, 0x3e, 0xb8, 0xf3, 0xe9, 0x3d,
  0xae, 0xbf, 0x37, 0x3e, 0x36, 0x88, 0xaf, 0x3d, 0x7a, 0x53, 0xcf, 0x3d,
  0x5f, 0xff, 0xab, 0xbd, 0xc1, 0x0d, 0xb1, 0x3d, 0x6a, 0xb1, 0xbf, 0x3d,
  0xec, 0x41, 0xdc, 0x3d, 0x3c, 0xf5, 0x72, 0x3e, 0x50, 0x23, 0xcc, 0x3d,
  0x2e, 0x97, 0x81, 0x3d, 0x49, 0x4a, 0x3a, 0x3e, 0x46, 0x37, 0x01, 0xbf,
  0xa4, 0x7d, 0x98, 0xbd, 0x8d, 0x93, 0x72, 0xbd, 0x43, 0xf5, 0x78, 0x3e,
  0x1c, 0xfe, 0xde, 0x3c, 0xdf, 0xff, 0x7c, 0xbe, 0xb5, 0x2f, 0x31, 0xbd,
  0x08, 0x4d, 0x75, 0x3e, 0x1c, 0x03, 0x48, 0x3e, 0x9b, 0x29, 0xcb, 0xbd,
  0x23, 0xa3, 0x4b, 0x3e, 0xcd, 0xbe, 0x66, 0x3e, 0xc7, 0x0c, 0x99, 0x3d,
  0x32, 0x91, 0xab, 0x3d, 0x2d, 0x96, 0x36, 0x3e, 0xfd, 0xb3, 0x14, 0x3b,
  0xae, 0x7a, 0x47, 0xbd, 0xa3, 0x97, 0x37, 0xbe, 0xb0, 0xd4, 0x8b, 0xbe,
  0x66, 0x3f, 0xc4, 0xbe, 0xee, 0x80, 0x81, 0xbe, 0x14, 0xb9, 0x3c, 0x3e,
  0x0d, 0xee, 0xac, 0xbc, 0xe2, 0x4a, 0x04, 0xbf, 0xa6, 0xbe, 0x1a, 0xbf,
  0xe7, 0x70, 0xf2, 0xbe, 0x57, 0x5a, 0xd8, 0xbe, 0x01, 0x22, 0x46, 0xbe,
  0x3b, 0x35, 0xe9, 0xbb, 0xf4, 0xaa, 0x9d, 0xbe, 0xcb, 0x0b, 0x80, 0xbe,
  0xf7, 0xff, 0xce, 0xbd, 0x6f, 0x63, 0xa3, 0xbe, 0xd0, 0xa7, 0x7e, 0x3d,
  0xde, 0x42, 0x91, 0xbe, 0x8c, 0x20, 0x12, 0x3d, 0x40, 0x7e, 0x52, 0xbd,
  0xf5, 0xb1, 0x4e, 0x3e, 0x8b, 0x68, 0xf6, 0xbc, 0x2b, 0x87, 0x06, 0xbe,
  0x27, 0xba, 0x19, 0xbe, 0x2f, 0x11, 0xda, 0xbe, 0xdf, 0x99, 0xa3, 0xbe,
  0xf1, 0x38, 0x60, 0x3d, 0xab, 0x22, 0x45, 0xbe, 0x9e, 0xf0, 0xc6, 0x3c,
  0x87, 0x69, 0x06, 0x3f, 0x6c, 0x82, 0xc6, 0xbc, 0x97, 0xfc, 0x31, 0xbe,
  0x7a, 0x30, 0xb5, 0x3e, 0x2f, 0x0d, 0x91, 0xbe, 0x13, 0xb4, 0x0d, 0xbe,
  0x06, 0x13, 0x85, 0x3c, 0x9f, 0xaa, 0xce, 0x3e, 0xdf, 0xd1, 0x8b, 0xbe,
  0x14, 0x03, 0x75, 0xbe, 0x6a, 0xcd, 0x03, 0xbe, 0xf9, 0x5b, 0xb9, 0xbe,
  0xf8, 0xe6, 0x19, 0xbe, 0x6e, 0x15, 0xde, 0xbd, 0x31, 0x7b, 0x06, 0xbe,
  0xad, 0x24, 0xa9, 0xbd, 0xd0, 0x42, 0xd3, 0x3e, 0x11, 0x48, 0x14, 0x3b,
  0xec, 0x1f, 0xa9, 0x3d, 0x0e, 0x48, 0xf7, 0x3e, 0x41, 0xbc, 0x11, 0x3e,
  0x86, 0x7b, 0x37, 0xbe, 0x82, 0xf6, 0x25, 0xbe, 0xb7, 0x03, 0xd9, 0x3e,
  0xd3, 0x3f, 0x1e, 0xbd, 0xa0, 0x01, 0xc0, 0xbe, 0x12, 0xf3, 0xbc, 0xbe,
  0xd3, 0x38, 0xc7, 0xbe, 0xcb, 0x4e, 0x9c, 0xbe, 0x35, 0xc9, 0xa2, 0xbd,
  0x5a, 0x7c, 0x9f, 0xbe, 0x93, 0xec, 0x09, 0xbd, 0x07, 0x1d, 0x71, 0x3e,
  0xf3, 0xc4, 0xb2, 0x3d, 0x27, 0x4a, 0xc6, 0xbd, 0x53, 0xfa, 0x13, 0x3f,
  0x2d, 0x14, 0xb4, 0xbd, 0xe2, 0xc5, 0x00, 0xbe, 0x74, 0x71, 0xca, 0xbd,
  0x74, 0xaa, 0x01, 0x3f, 0x50, 0x62, 0xb8, 0xbe, 0xed, 0x9e, 0xbb, 0xbe,
  0x94, 0x02, 0xd0, 0xbe, 0x00, 0x86, 0xef, 0x3d, 0x2c, 0x0b, 0x24, 0xbe,
  0x88, 0xf2, 0x47, 0xbe, 0x43, 0x86, 0x34, 0xbd, 0x69, 0x2d, 0x3b, 0xbe,
  0x38, 0x76, 0xfb, 0x3d, 0x4c, 0x01, 0x57, 0xbe, 0x4c, 0xa0, 0xff, 0xbd,
  0xf8, 0x43, 0xb6, 0x3e, 0x89, 0xa1, 0xa7, 0xbd, 0x94, 0x91, 0x47, 0xbe,
  0xb9, 0xbb, 0x48, 0xbd, 0x53, 0xe5, 0x18, 0x3f, 0xa7, 0x03, 0x2e, 0xbd,
  0x50, 0xd2, 0x9d, 0xbe, 0xf3, 0xe1, 0x72, 0xbe, 0x50, 0x52, 0xd4, 0x3c,
  0x5a, 0x8d, 0xb2, 0xbe, 0xbf, 0x8f, 0x85, 0xbe, 0x0c, 0x20, 0xb8, 0xbe,
  0x8c, 0x49, 0xe4, 0x3d, 0x43, 0x96, 0x3f, 0x3e, 0xd6, 0x91, 0x9e, 0xbc,
  0x25, 0xef, 0x51, 0xbd, 0x95, 0xe7, 0x2f, 0x39, 0xc2, 0x67, 0x61, 0x3e,
  0x05, 0x87, 0x65, 0xbc, 0x65, 0xbd, 0xab, 0x3c, 0x02, 0x62, 0xb2, 0xbd,
  0x98, 0xe7, 0xa8, 0xbe, 0xe8, 0xea, 0x00, 0xbf, 0xae, 0x87, 0x02, 0xbe,
  0x02, 0x9b, 0xb0, 0xbe, 0x25, 0x40, 0xa7, 0xbe, 0x8e, 0xe8, 0x6f, 0xbe,
  0x6b, 0xf7, 0x8f, 0xbe, 0x92, 0x08, 0xc4, 0xbe, 0x56, 0x94, 0x69, 0x3c,
  0xfb, 0x89, 0xf6, 0xbc, 0xd2, 0x5b, 0x97, 0xbe, 0xe3, 0x61, 0x19, 0xbd,
  0x39, 0x9a, 0xde, 0x3b, 0xc5, 0x07, 0x9d, 0xbd, 0x17, 0x83, 0x16, 0xbf,
  0x80, 0xb3, 0x1a, 0x3e, 0xd0, 0x22, 0x1c, 0xbc, 0x97, 0x42, 0xad, 0xbd,
  0x5f, 0xd8, 0x92, 0x3d, 0xa1, 0x07, 0x0b, 0x3e, 0xc5, 0xbb, 0x29, 0x3d,
  0xff, 0x7d, 0x9c, 0xbc, 0x43, 0x9b, 0x10, 0xbf, 0xb5, 0x83, 0xd8, 0x3d,
  0x04, 0x2c, 0xaa, 0x3e, 0xc5, 0x38, 0x8f, 0x3d, 0x25, 0x4f, 0xac, 0x3d,
  0x33, 0x23, 0x5b, 0x3e, 0x97, 0xb6, 0x5d, 0xbd, 0x6c, 0x96, 0x75, 0xbd,
  0xb4, 0x64, 0xa8, 0xbe, 0x2e, 0x45, 0xbd, 0x3d, 0xa4, 0xa2, 0x18, 0x3c,
  0xe0, 0x23, 0xa7, 0xbd, 0xac, 0xdc, 0x96, 0xbc, 0xd7, 0xe9, 0xe0, 0x3d,
  0xef, 0xda, 0x5c, 0xbe, 0x18, 0xb0, 0xe1, 0xbc, 0x54, 0x8b, 0xd1, 0xbe,
  0x8c, 0xe0, 0xb0, 0xbe, 0xfc, 0xa0, 0xf4, 0x3d, 0xec, 0xbf, 0xa1, 0x3d,
  0xb0, 0xf5, 0xa8, 0x3b, 0xd0, 0x28, 0xb4, 0xbc, 0xfe, 0xd4, 0xf0, 0x3c,
  0x94, 0xb7, 0x8c, 0xbb, 0x5c, 0x17, 0xcd, 0xbe, 0xdb, 0x59, 0x20, 0x3d,
  0x69, 0x44, 0x7b, 0xbd, 0xaf, 0xba, 0x89, 0xbe, 0xce, 0xef, 0x92, 0x3d,
  0xa9, 0x85, 0x86, 0x3d, 0x68, 0x97, 0xc8, 0xbd, 0x20, 0xb5, 0xe6, 0xbc,
  0x44, 0xe9, 0xc4, 0xbe, 0x2c, 0xc5, 0x03, 0xbe, 0xcd, 0xc5, 0x15, 0xbf,
  0x0e, 0x07, 0x88, 0x3d, 0xa8, 0x16, 0x33, 0xbd, 0x3d, 0x67, 0x71, 0x3d,
  0xb8, 0xd9, 0xa8, 0x3d, 0xc8, 0xf5, 0xd2, 0xbb, 0x6f, 0xc2, 0xa5, 0xbe,
  0xfe, 0x7c, 0xa2, 0x3d, 0x73, 0x40, 0x98, 0xbe, 0xe5, 0x73, 0x05, 0xbf,
  0x67, 0x64, 0x07, 0x3d, 0xdc, 0x64, 0xc6, 0x3c, 0x8f, 0x46, 0xb8, 0xbc,
  0xb2, 0xd6, 0xd4, 0x3b, 0x69, 0xb1, 0x9e, 0xbe, 0xd2, 0x03, 0x66, 0xbe,
  0x65, 0x89, 0x3d, 0xbf, 0xb0, 0x79, 0x99, 0x3d, 0x57, 0xa3, 0xb8, 0xbd,
  0x18, 0x31, 0x45, 0xbe, 0x6a, 0x2b, 0xba, 0x3d, 0x26, 0x85, 0x28, 0xbc,
  0x06, 0xce, 0x08, 0xbe, 0xda, 0xfb, 0x9a, 0x3d, 0x4b, 0x2b, 0x9e, 0xbe,
  0x0c, 0x34, 0xc7, 0xbe, 0xa3, 0x9e, 0x32, 0x3a, 0x05, 0x9c, 0xa1, 0x3d,
  0xad, 0x08, 0x6e, 0xbe, 0x63, 0x78, 0xae, 0x3c, 0xb1, 0x85, 0x46, 0xbe,
  0x44, 0x79, 0x86, 0xbe, 0x52, 0xb3, 0x0d, 0x3e, 0xc1, 0x8a, 0xc5, 0x3d,
  0x5e, 0xd7, 0x56, 0xbd, 0x83, 0x5a, 0x8e, 0xbe, 0xbd, 0x7e, 0x1e, 0x3e,
  0x6f, 0x2d, 0x8b, 0xbd, 0x6e, 0xaa, 0xe5, 0x3d, 0x22, 0x24, 0x24, 0x3e,
  0x3e, 0xa6, 0xa6, 0x3d, 0x09, 0x6e, 0x1d, 0xbe, 0x0b, 0x97, 0xd8, 0xbb,
  0xd4, 0xdb, 0xf3, 0x3d, 0x93, 0x8f, 0xd8, 0xbd, 0x76, 0x5b, 0x2d, 0x3b,
  0x55, 0x7b, 0x13, 0xbe, 0xa7, 0xe7, 0x53, 0xbe, 0x10, 0x0b, 0x85, 0xbd,
  0xb7, 0xf3, 0x09, 0x3e, 0x55, 0x18, 0xe4, 0xbd, 0xfc, 0x4a, 0x09, 0xbe,
  0x3e, 0x91, 0xcc, 0x3d, 0x1f, 0xc3, 0xd8, 0xbd, 0x08, 0xd1, 0x13, 0xbe,
  0x2d, 0x7a, 0x08, 0xbc, 0xa7, 0x7e, 0xb0, 0xbd, 0xc4, 0x97, 0x45, 0x3e,
  0xe0, 0x0f, 0xed, 0xbd, 0x6b, 0xd8, 0xba, 0xbc, 0x89, 0xdc, 0xf9, 0x3d,
  0x1c, 0x20, 0x67, 0x3c, 0xb6, 0x80, 0x00, 0x3c, 0x0e, 0x88, 0xb7, 0x3c,
  0xa4, 0xee, 0x31, 0x3e, 0x6c, 0x7a, 0xe0, 0x3d, 0x06, 0xb5, 0xab, 0x3b,
  0xea, 0xfa, 0x97, 0xbc, 0x3c, 0x19, 0x99, 0xbe, 0xd7, 0xe8, 0x17, 0x3e,
  0xbf, 0x49, 0xf6, 0xbe, 0x91, 0xe2, 0x6e, 0x3d, 0x3b, 0x21, 0x64, 0x3d,
  0x1d, 0xac, 0x50, 0xbe, 0x15, 0xeb, 0xb6, 0xbe, 0x21, 0xfb, 0xce, 0xbe,
  0x4c, 0xac, 0x8a, 0xbe, 0x35, 0x2c, 0x8e, 0xbd, 0x4f, 0x62, 0x92, 0x3e,
  0x51, 0xb8, 0x2e, 0xbe, 0xd1, 0x4d, 0x41, 0xbe, 0xb1, 0xec, 0x3c, 0xbd,
  0xdf, 0xca, 0x86, 0xbe, 0x6e, 0x2b, 0x71, 0xbe, 0x20, 0x5b, 0x14, 0xbe,
  0xab, 0xec, 0x61, 0x3d, 0x05, 0x02, 0xa7, 0xbe, 0x31, 0x23, 0x4a, 0xbe,
  0x89, 0x77, 0x6f, 0xbe, 0xfb, 0x76, 0x55, 0xbe, 0x4e, 0xfd, 0x91, 0xbe,
  0x9d, 0x8e, 0xf2, 0xbe, 0x81, 0xff, 0x91, 0xbe, 0x19, 0xbd, 0xac, 0xbd,
  0x9f, 0x17, 0x83, 0xbd, 0x11, 0xfe, 0x82, 0xbe, 0x94, 0xa8, 0xaa, 0xbe,
  0x6a, 0xb7, 0xcb, 0xbd, 0x58, 0xf0, 0x05, 0xbe, 0x4d, 0xf3, 0x56, 0xbe,
  0xcd, 0x81, 0x91, 0xbe, 0x34, 0x45, 0xa3, 0xbd, 0x8a, 0x27, 0x18, 0xbf,
  0xa0, 0x35, 0xcb, 0xbe, 0xa9, 0x4b, 0x6f, 0xbe, 0x00, 0x6d, 0xe8, 0xbe,
  0x22, 0x54, 0x8e, 0x3d, 0xdf, 0x69, 0xa9, 0xbe, 0xbd, 0x77, 0xdd, 0xbe,
  0xc2, 0x3c, 0x4d, 0xbd, 0xf0, 0x62, 0xa8, 0xbe, 0x16, 0xd3, 0xaa, 0xbe,
  0xd5, 0xe8, 0x61, 0xbe, 0x08, 0xe2, 0xb5, 0x3c, 0x55, 0xdd, 0x79, 0xbe,
  0x22, 0xfa, 0xba, 0xbe, 0xe6, 0x07, 0x1a, 0xbf, 0x1e, 0xa4, 0xff, 0x3d,
  0xe7, 0x62, 0xf4, 0xbe, 0x64, 0x52, 0x1b, 0xbe, 0xbf, 0x5d, 0xa9, 0xbe,
  0x72, 0xcb, 0xe1, 0xbe, 0x71, 0xa7, 0xdd, 0x3d, 0x8f, 0x76, 0x07, 0xbf,
  0x21, 0x8e, 0x7c, 0xbe, 0x15, 0x9f, 0x8c, 0xbc, 0x3e, 0xb0, 0x9f, 0xbe,
  0x2c, 0x10, 0x9c, 0xbe, 0x64, 0x50, 0xc0, 0xbe, 0xf3, 0x95, 0x02, 0xbe,
  0x5a, 0x72, 0xea, 0xbe, 0xf5, 0x12, 0xee, 0xbe, 0x0f, 0x20, 0xbb, 0xbb,
  0x4f, 0xcc, 0xec, 0xbd, 0xf7, 0xaa, 0xfb, 0xbd, 0x89, 0xbd, 0x8f, 0xbe,
  0xf4, 0xbb, 0xfb, 0x3d, 0xd5, 0x93, 0x8b, 0xbe, 0x50, 0x80, 0x86, 0xbd,
  0x13, 0x8b, 0xd9, 0xbe, 0x39, 0x60, 0x16, 0x3e, 0xc4, 0xb0, 0xb1, 0xbc,
  0xa3, 0x81, 0x81, 0x3d, 0xa7, 0x7c, 0x70, 0xbe, 0x02, 0x9b, 0xc2, 0xbe,
  0x41, 0x07, 0x25, 0xbe, 0xab, 0xe2, 0x60, 0xbd, 0x05, 0x73, 0x26, 0x3e,
  0x3d, 0xb2, 0xcc, 0x3a, 0xfe, 0x52, 0x6d, 0xbd, 0x3a, 0xf5, 0x80, 0xbd,
  0x0b, 0x36, 0xbf, 0xbe, 0x50, 0xd0, 0xb3, 0x3e, 0xbc, 0x6f, 0x37, 0x3e,
  0xac, 0x12, 0x9d, 0xbe, 0xff, 0xbb, 0xd3, 0xbe, 0x46, 0xf6, 0x43, 0x3e,
  0x5a, 0x03, 0x43, 0xbd, 0xdf, 0x97, 0x80, 0xbe, 0x7a, 0x43, 0xca, 0xbe,
  0x5e, 0xb5, 0xa0, 0xbe, 0x22, 0xd0, 0x41, 0xbc, 0x15, 0x3f, 0x1b, 0x3e,
  0x63, 0x68, 0x70, 0x3e, 0x63, 0xbc, 0x09, 0x3e, 0x4a, 0x72, 0x0d, 0xbe,
  0xa4, 0x61, 0x87, 0x3d, 0x6a, 0x99, 0xd4, 0xbd, 0xf4, 0x30, 0x15, 0x3e,
  0x12, 0x4d, 0xa2, 0xbb, 0x1c, 0x87, 0x89, 0xbe, 0xea, 0xaf, 0x0b, 0xbd,
  0xcf, 0xa3, 0x36, 0x3e, 0xa6, 0x3d, 0xda, 0xbd, 0xd9, 0x04, 0x33, 0x3e,
  0x89, 0xb0, 0xc1, 0x3c, 0xfd, 0x09, 0xfc, 0xbd, 0xd3, 0x45, 0xfb, 0x3d,
  0xd2, 0xf3, 0x34, 0x3e, 0xa8, 0x36, 0xfe, 0x3c, 0x50, 0x9b, 0x0a, 0xbe,
  0x4b, 0x0c, 0x2a, 0xbd, 0x38, 0x12, 0x67, 0x3e, 0xca, 0xf9, 0x14, 0xba,
  0xae, 0x69, 0xe7, 0x3d, 0x82, 0x30, 0xb4, 0xbc, 0x75, 0x8a, 0x49, 0x3d,
  0xb4, 0xbe, 0xeb, 0xbc, 0xbd, 0x40, 0x42, 0x3d, 0x11, 0x75, 0x06, 0xbe,
  0x9d, 0xb9, 0x5b, 0x3e, 0x45, 0xb2, 0x13, 0x3d, 0x08, 0x23, 0xa7, 0x3d,
  0x52, 0x17, 0x89, 0xbd, 0x74, 0x34, 0xae, 0xbd, 0x82, 0x9c, 0xb8, 0xbd,
  0x6a, 0xac, 0x40, 0xbd, 0x9a, 0x0c, 0x21, 0x3d, 0x4e, 0xee, 0x1b, 0xbd,
  0xfa, 0xb2, 0x3a, 0xbd, 0xee, 0x82, 0x09, 0xbd, 0x68, 0x97, 0x02, 0x3e,
  0x5a, 0x10, 0x1c, 0x3c, 0xdd, 0x3c, 0x85, 0xbe, 0xa8, 0xfa, 0x2a, 0x3e,
  0xd7, 0x10, 0x8d, 0x3a, 0xb3, 0x3b, 0x83, 0x3e, 0xd1, 0x74, 0x70, 0x3e,
  0xb3, 0x90, 0x6a, 0x3e, 0x27, 0x2a, 0x61, 0x3d, 0x27, 0x64, 0x51, 0xbe,
  0xe5, 0x6b, 0xa3, 0xbd, 0x8e, 0xd5, 0xeb, 0xbd, 0xce, 0xf9, 0x99, 0xbd,
  0x58, 0x7a, 0x0a, 0xbe, 0xbc, 0x95, 0x1f, 0xbc, 0xc4, 0xd0, 0x1a, 0x3c,
  0xc7, 0x46, 0xbe, 0x3d, 0x1b, 0x05, 0xac, 0x3c, 0x9a, 0xc9, 0xed, 0xbb,
  0x19, 0x24, 0x12, 0x3e, 0x1e, 0x8c, 0x19, 0xbe, 0x2c, 0x8f, 0x0d, 0x3e,
  0x51, 0x6f, 0x07, 0x3e, 0x1f, 0x7b, 0x80, 0xbd, 0xd6, 0x19, 0xb6, 0x3c,
  0x77, 0x82, 0x06, 0xbe, 0x1d, 0xee, 0xcd, 0x3a, 0x3e, 0xb5, 0x84, 0xbd,
  0x52, 0x96, 0x7d, 0xbd, 0x08, 0xb0, 0x52, 0xbd, 0x08, 0x72, 0xe5, 0x3c,
  0xbb, 0x0d, 0xa3, 0xbe, 0x35, 0x5e, 0x56, 0xbc, 0x48, 0xbb, 0x8e, 0x3d,
  0xb2, 0x4a, 0xcc, 0xbd, 0x1e, 0xe3, 0x9a, 0xbe, 0x0f, 0x0d, 0xf2, 0xbd,
  0xd5, 0xf8, 0xa8, 0x3d, 0xee, 0xdb, 0x9b, 0xbb, 0x1f, 0xe8, 0xd2, 0x3d,
  0x7b, 0xdf, 0x6b, 0x3d, 0x49, 0x82, 0x5a, 0xbd, 0xc6, 0x6f, 0xe4, 0xbc,
  0xbb, 0x81, 0x8a, 0x3d, 0x1d, 0x1f, 0x7a, 0xbc, 0x1c, 0x21, 0x73, 0xbe,
  0xc2, 0x7f, 0x13, 0xbc, 0x70, 0x10, 0x26, 0xbe, 0xe7, 0xaf, 0xbd, 0x3d,
  0x66, 0x9c, 0x45, 0x3c, 0x1d, 0x98, 0x01, 0xbc, 0x6b, 0x8e, 0x8f, 0xbe,
  0xcc, 0xcf, 0x13, 0xbe, 0x82, 0xfe, 0x44, 0xbe, 0xdf, 0xde, 0x94, 0x3d,
  0x49, 0x8d, 0x8b, 0xbc, 0x85, 0x58, 0xd7, 0xbd, 0x05, 0x7c, 0xe0, 0xbd,
  0xa5, 0xfc, 0xa6, 0x3d, 0x3c, 0x01, 0x60, 0xbe, 0x47, 0x1e, 0x47, 0x3e,
  0xe7, 0x75, 0xd1, 0xbd, 0x59, 0x8b, 0x85, 0xbd, 0x5a, 0xb3, 0x67, 0x3d,
  0x5a, 0x66, 0x7e, 0x3d, 0xe9, 0x0a, 0x93, 0x3d, 0x03, 0x81, 0x30, 0xbe,
  0x37, 0x2b, 0x21, 0x3e, 0xcc, 0xdf, 0x59, 0xbc, 0xbf, 0x53, 0xdd, 0x3d,
  0x71, 0x2a, 0x94, 0x3d, 0x81, 0xf0, 0x83, 0xbd, 0x2b, 0x60, 0x07, 0xbe,
  0x9d, 0x95, 0x0c, 0xbe, 0xf3, 0xba, 0x35, 0xbd, 0xda, 0xf1, 0xc4, 0xbd,
  0x02, 0x49, 0xbe, 0x3d, 0x3b, 0xa2, 0x3e, 0x3d, 0xe6, 0xac, 0x3b, 0xbe,
  0x05, 0x4e, 0x8d, 0xbe, 0xc6, 0x42, 0x89, 0x3c, 0xb2, 0x93, 0x82, 0x3e,
  0x9f, 0x94, 0x2e, 0xbd, 0xf1, 0xcf, 0xb8, 0xbb, 0x14, 0xae, 0x5a, 0x3d,
  0xcc, 0x49, 0x38, 0x3e, 0x6e, 0x14, 0x9c, 0x3d, 0x9f, 0x03, 0xb2, 0xbc,
  0x7c, 0x6b, 0x27, 0xbe, 0xb2, 0xc3, 0xb5, 0x3d, 0x09, 0xa4, 0x14, 0x3d,
  0x8a, 0xc1, 0xe2, 0xbc, 0xc7, 0xeb, 0xb6, 0xbd, 0x6a, 0x7b, 0xb0, 0xbe,
  0xd4, 0xf4, 0x42, 0x3e, 0x85, 0x26, 0x08, 0xbf, 0x0a, 0x5f, 0xc1, 0xbe,
  0x75, 0x6f, 0x42, 0xbf, 0xe0, 0xcb, 0x38, 0x3e, 0xb8, 0x0c, 0x16, 0xbf,
  0xea, 0x89, 0xf1, 0x3c, 0xb6, 0xf0, 0x5a, 0xbe, 0x54, 0xa3, 0x2f, 0xbf,
  0x2c, 0xad, 0x91, 0x3e, 0x9c, 0x82, 0xb4, 0xba, 0xde, 0x2a, 0xad, 0xbe,
  0x7e, 0xce, 0x26, 0x3d, 0x43, 0x58, 0x53, 0x3d, 0x88, 0xda, 0xf1, 0xbe,
  0xe6, 0x66, 0x39, 0xbe, 0x9e, 0xc3, 0x09, 0x3e, 0xf8, 0x68, 0xab, 0xbd,
  0xab, 0xc4, 0x06, 0xbe, 0x1d, 0x4a, 0xea, 0xbe, 0xa9, 0x6a, 0xf0, 0x3d,
  0x36, 0xbe, 0x0e, 0xbf, 0xab, 0x4e, 0x1c, 0xbc, 0xf9, 0x1f, 0x1c, 0x3d,
  0xe2, 0x59, 0x7c, 0xbe, 0xbe, 0x5c, 0xb3, 0x3e, 0x2f, 0xb7, 0x9c, 0x3e,
  0x55, 0x5b, 0xfc, 0x3d, 0xee, 0xba, 0x0a, 0x3e, 0x42, 0xda, 0x1d, 0x3e,
  0x1f, 0x47, 0x1c, 0xbd, 0x79, 0x3c, 0x76, 0xbe, 0xaf, 0xe9, 0x4b, 0x3e,
  0xc3, 0x93, 0x64, 0x3d, 0x71, 0xe5, 0x38, 0xbe, 0x4d, 0x13, 0x3b, 0xbe,
  0x0e, 0xba, 0xdc, 0x3d, 0xbe, 0xbc, 0xa5, 0xbd, 0xfe, 0xb5, 0x7a, 0x39,
  0xe5, 0xa9, 0xa1, 0xbd, 0xcb, 0xbd, 0xa2, 0xbe, 0x5b, 0x60, 0xa2, 0x3d,
  0x94, 0x02, 0x8c, 0x3e, 0xc9, 0xdd, 0x86, 0x3c, 0x94, 0xc9, 0xe6, 0x3e,
  0x22, 0x15, 0x0a, 0x3e, 0x88, 0x98, 0x62, 0xbe, 0xfd, 0xe8, 0x49, 0xbe,
  0x3c, 0xe4, 0xd7, 0x3d, 0x52, 0x61, 0x78, 0x3d, 0xd2, 0xb5, 0x88, 0xbe,
  0x6f, 0x88, 0x6e, 0xbe, 0x06, 0x69, 0x2b, 0x3d, 0x1d, 0x74, 0xa9, 0xbe,
  0xdd, 0x66, 0x8b, 0xbb, 0xc8, 0xbc, 0x16, 0x3e, 0x61, 0x35, 0x43, 0x3d,
  0x79, 0x86, 0x5c, 0x3d, 0x3e, 0x5d, 0xb8, 0x3e, 0x3f, 0x4b, 0xa0, 0xbc,
  0x55, 0xc1, 0xeb, 0x3d, 0x37, 0x80, 0x0d, 0x3e, 0xbe, 0x1a, 0xbc, 0xbd,
  0xc7, 0x9c, 0x38, 0xbe, 0x2e, 0x4d, 0x74, 0x3e, 0x55, 0xf5, 0xf6, 0xbe,
  0xc9, 0x86, 0x9f, 0xbe, 0x0b, 0xa8, 0xdf, 0x3c, 0xf8, 0x37, 0x79, 0x3e,
  0xa2, 0xed, 0x2b, 0xbf, 0x54, 0x08, 0x3a, 0x3b, 0x22, 0x95, 0xa8, 0xbd,
  0x5b, 0x0e, 0xc0, 0xbe, 0x1a, 0xbe, 0xfb, 0xbd, 0xd5, 0xe1, 0x40, 0x3e,
  0x36, 0x46, 0xcb, 0xbc, 0xfc, 0x5d, 0xd2, 0xbe, 0xc7, 0x37, 0xb3, 0x3d,
  0xf5, 0x24, 0x5c, 0xbe, 0x2c, 0x70, 0xcb, 0xbe, 0xf0, 0xf9, 0x9f, 0x3e,
  0xb4, 0xaa, 0xb9, 0xbe, 0xc4, 0x0c, 0x12, 0xbf, 0x99, 0x5a, 0xeb, 0x3d,
  0x5b, 0x6b, 0x27, 0x3e, 0x7d, 0x9d, 0x00, 0xbf, 0x8a, 0x92, 0x9d, 0xbb,
  0xea, 0xeb, 0x2b, 0xbe, 0x96, 0x3e, 0x75, 0xbe, 0x57, 0xcb, 0xd3, 0xbc,
  0xed, 0x9a, 0x02, 0x3d, 0x26, 0x79, 0xea, 0xbd, 0xd7, 0xbc, 0xab, 0xbe,
  0x08, 0x2f, 0x16, 0x3d, 0xa9, 0x7a, 0xd6, 0xbd, 0x06, 0x99, 0xce, 0xbc,
  0xcd, 0xc0, 0x9b, 0x3c, 0x1d, 0x94, 0x51, 0xbe, 0xf2, 0xae, 0xa8, 0xbc,
  0x2a, 0xb3, 0x76, 0x3c, 0x43, 0x99, 0x2f, 0x3c, 0x26, 0x7b, 0x87, 0xbe,
  0x73, 0xa6, 0xa5, 0xbb, 0x01, 0x72, 0xdd, 0xbc, 0xcd, 0x21, 0x91, 0xbe,
  0x27, 0xf3, 0x87, 0x3e, 0xe1, 0xc1, 0xcd, 0x3d, 0xef, 0x62, 0x8f, 0xbd,
  0x8a, 0x83, 0x74, 0xbe, 0xf8, 0xfc, 0x84, 0x3d, 0xc5, 0x3a, 0xe3, 0x3c,
  0xaf, 0x33, 0x83, 0x3e, 0xfa, 0xf0, 0x1c, 0xbf, 0x7e, 0xa2, 0x1f, 0xbf,
  0x0f, 0x89, 0xd8, 0xbc, 0xae, 0x04, 0x25, 0x3e, 0xb1, 0x3c, 0xba, 0xbe,
  0x57, 0xe1, 0x8a, 0xbe, 0x9e, 0xaf, 0x8b, 0x3c, 0x2c, 0x09, 0x88, 0x3e,
  0xec, 0xbd, 0x57, 0x3e, 0x77, 0xa2, 0x07, 0x3d, 0x77, 0x4e, 0xcb, 0xbd,
  0x71, 0xca, 0x5c, 0xbe, 0x17, 0x22, 0x40, 0xbf, 0x97, 0x19, 0x43, 0x3c,
  0x36, 0xda, 0x7c, 0x3c, 0x7d, 0x30, 0x12, 0x3e, 0xdd, 0x8d, 0xc7, 0xbe,
  0x04, 0x1c, 0x27, 0xbe, 0xc4, 0x0f, 0x03, 0xbf, 0x40, 0xff, 0x21, 0x3d,
  0xd1, 0x69, 0x26, 0xbf, 0x80, 0xa4, 0x4c, 0x3e, 0x14, 0x3d, 0x72, 0x3c,
  0x3b, 0x7b, 0x0c, 0x3e, 0xd4, 0xe0, 0x50, 0x3d, 0xb8, 0x5e, 0x83, 0xbe,
  0x40, 0x73, 0x57, 0xbd, 0x34, 0x9e, 0x24, 0x3e, 0x76, 0x41, 0x25, 0xbe,
  0x81, 0xa1, 0x02, 0xbd, 0x7d, 0xda, 0x52, 0x3d, 0x23, 0xff, 0x87, 0x3e,
  0x2f, 0x4b, 0x28, 0x3e, 0xf1, 0xb9, 0x3b, 0x3e, 0xaf, 0x7f, 0xa6, 0xbe,
  0xb1, 0x54, 0xc3, 0x3d, 0x9c, 0xb4, 0xd8, 0xbe, 0x2f, 0x6f, 0x0b, 0xbd,
  0x27, 0x3b, 0x8c, 0x3b, 0x28, 0xda, 0xe4, 0x3d, 0xdb, 0x5d, 0x41, 0x3e,
  0xe9, 0xa3, 0x98, 0xbd, 0x6c, 0x2e, 0xaf, 0xbd, 0x0a, 0x35, 0x2e, 0x3e,
  0x5c, 0x3e, 0xc6, 0xbd, 0x86, 0x32, 0x58, 0xbd, 0xce, 0x57, 0x30, 0x3c,
  0x6a, 0xcc, 0x8d, 0x3e, 0xf0, 0xc9, 0x09, 0x3c, 0x34, 0xf9, 0x68, 0x3e,
  0xa9, 0xb9, 0x19, 0x3e, 0xc4, 0x77, 0x29, 0xbc, 0x49, 0xc2, 0x94, 0xbd,
  0x3f, 0xbc, 0x01, 0xbe, 0x69, 0x4c, 0xc0, 0xba, 0x5a, 0x68, 0xd7, 0x3d,
  0x9b, 0xfc, 0x15, 0x3b, 0x62, 0xfc, 0x81, 0xbe, 0x5f, 0xd3, 0x05, 0xbe,
  0xa0, 0x9c, 0xfb, 0x3d, 0xfc, 0xae, 0x1e, 0x3e, 0xfd, 0xc4, 0xbc, 0xbc,
  0x16, 0x41, 0x99, 0xbe, 0x59, 0xf3, 0x67, 0x3e, 0x7d, 0x54, 0x7a, 0x3b,
  0x11, 0x7d, 0x6f, 0x3e, 0xcd, 0x7e, 0xcb, 0xbd, 0xb2, 0x8d, 0xb6, 0x3c,
  0x2b, 0x63, 0xd9, 0xbd, 0x3c, 0x7f, 0x92, 0xbc, 0x84, 0x37, 0xf0, 0x3c,
  0x94, 0xad, 0x08, 0xbe, 0xef, 0x81, 0x9f, 0xbe, 0x32, 0xf8, 0x55, 0xbe,
  0xd5, 0x49, 0xce, 0xbd, 0x3e, 0xd9, 0x05, 0x3e, 0xe7, 0x69, 0x5a, 0xbc,
  0xa6, 0x8e, 0x80, 0xbe, 0x53, 0x41, 0x6d, 0xbe, 0x27, 0x45, 0x3f, 0x3d,
  0x2e, 0x4a, 0xc7, 0xbd, 0xe6, 0x4d, 0xfd, 0x3c, 0xcd, 0x3b, 0xf2, 0xbe,
  0x20, 0x3e, 0x3d, 0x3d, 0xa7, 0x06, 0x65, 0xbe, 0xf1, 0x2f, 0x20, 0x3e,
  0x42, 0x67, 0x31, 0x3d, 0x1d, 0x6b, 0x49, 0x3e, 0x1b, 0x87, 0x20, 0xbd,
  0xdc, 0x00, 0x2a, 0x3c, 0x94, 0xf1, 0x86, 0xbe, 0xdf, 0x3b, 0xc7, 0x3d,
  0x69, 0x47, 0x15, 0x3e, 0xab, 0x22, 0x9a, 0xbe, 0xc6, 0x7e, 0xb9, 0xbe,
  0xf2, 0xbb, 0x50, 0x3e, 0xc3, 0x0a, 0x81, 0x3c, 0x94, 0x2f, 0x00, 0x3d,
  0x96, 0x36, 0x25, 0xbf, 0x76, 0x94, 0x70, 0x3e, 0xa5, 0xf3, 0xc9, 0x3a,
  0x2a, 0x66, 0x07, 0xbf, 0x7e, 0x8b, 0x3a, 0x3d, 0x3f, 0x9f, 0xf3, 0x3d,
  0x2a, 0xcd, 0xdf, 0xbe, 0x01, 0xcd, 0x0e, 0xbf, 0x60, 0xba, 0xaf, 0xbd,
  0xcb, 0x24, 0x9b, 0x3d, 0xd0, 0xbf, 0x41, 0xbc, 0xea, 0x3f, 0x57, 0x3d,
  0xb2, 0x89, 0x90, 0xbd, 0x9a, 0x55, 0xcc, 0xbd, 0xd7, 0xf0, 0x3d, 0x3d,
  0x4f, 0xfd, 0x89, 0x3e, 0x49, 0xfc, 0x0c, 0x3e, 0x15, 0x2a, 0x7f, 0x3e,
  0x85, 0xbb, 0xa7, 0x3c, 0xe8, 0x38, 0x0f, 0x3e, 0x77, 0x28, 0x2d, 0xbe,
  0xaa, 0xc2, 0xa5, 0xbe, 0x80, 0xdd, 0x73, 0x3e, 0x7b, 0x88, 0xec, 0xbd,
  0xe1, 0xe9, 0xb1, 0x3d, 0x6a, 0x9d, 0x3b, 0x3e, 0xb2, 0x29, 0x99, 0x3e,
  0x11, 0x85, 0xa1, 0xbc, 0x57, 0x80, 0xcc, 0x3c, 0xda, 0x70, 0x8d, 0xbe,
  0x77, 0x0c, 0x32, 0x3b, 0xf3, 0xe5, 0x06, 0x3e, 0x63, 0x43, 0xe3, 0xbe,
  0x14, 0x47, 0x2c, 0x3e, 0x9b, 0x03, 0x69, 0x3b, 0xb2, 0x6d, 0x27, 0xbd,
  0xae, 0x53, 0xe1, 0xbc, 0xf0, 0x22, 0xa4, 0xbe, 0x1d, 0x25, 0x70, 0xbd,
  0xc8, 0xc8, 0x0c, 0xbf, 0x2d, 0x39, 0x36, 0xbe, 0xc3, 0xae, 0xa6, 0xbe,
  0xdd, 0xf9, 0x82, 0x3d, 0x2a, 0x08, 0xb0, 0xbe, 0xe4, 0x92, 0x9b, 0xbc,
  0x6c, 0x8f, 0xc2, 0x3d, 0x10, 0x19, 0x7c, 0xbd, 0xe8, 0xda, 0xa2, 0xbd,
  0xd6, 0xd3, 0x0b, 0xbf, 0x7e, 0x2d, 0x93, 0xbd, 0x68, 0xc3, 0x83, 0xbe,
  0x51, 0xc4, 0xd4, 0xbd, 0xd4, 0x21, 0x43, 0xbc, 0x0a, 0xac, 0x5e, 0xbd,
  0x52, 0xae, 0x89, 0xbe, 0x96, 0xbf, 0xd5, 0xbe, 0x2b, 0xba, 0xd9, 0xbe,
  0x58, 0x2a, 0xec, 0xbd, 0x77, 0x86, 0xee, 0xbe, 0xb0, 0xd7, 0x9f, 0xbe,
  0xee, 0x51, 0xaa, 0xbd, 0x8a, 0x19, 0xa6, 0x3d, 0xc8, 0xb3, 0x0c, 0xbf,
  0x2d, 0xc0, 0x22, 0x3e, 0x32, 0x49, 0x4c, 0xbe, 0x07, 0xb9, 0x19, 0xbd,
  0x8c, 0xf4, 0xd3, 0xbe, 0x08, 0x6e, 0xc1, 0xbe, 0xae, 0x98, 0x8f, 0x3b,
  0x99, 0x77, 0x06, 0xbe, 0x5f, 0x57, 0x13, 0x3d, 0xc3, 0x42, 0xaf, 0xbd,
  0x7e, 0xbe, 0xb7, 0xbe, 0x7f, 0xf4, 0xbf, 0xbd, 0xde, 0x93, 0xaf, 0xbd,
  0xda, 0xd0, 0x74, 0xbe, 0x7c, 0xe4, 0xb0, 0xbd, 0x62, 0x3f, 0x40, 0x3e,
  0xd9, 0x8b, 0x5d, 0xbd, 0x60, 0x3f, 0x03, 0xbe, 0x29, 0xb6, 0xaf, 0xbe,
  0xa5, 0x1b, 0x19, 0x3d, 0xc8, 0xb3, 0xdc, 0xbe, 0x8f, 0x70, 0x57, 0xbe,
  0x75, 0x28, 0x0b, 0x3c, 0xc5, 0xfd, 0x74, 0xbe, 0x47, 0xd5, 0xc4, 0xbe,
  0x5c, 0x9a, 0x05, 0xbf, 0xaf, 0x87, 0x1e, 0xbe, 0x3d, 0xda, 0xf0, 0xbd,
  0xbf, 0x8b, 0xbb, 0xbe, 0xc3, 0x73, 0x36, 0xbe, 0xb2, 0xc5, 0x5f, 0x3d,
  0xe9, 0x24, 0xcf, 0x3d, 0x6b, 0xab, 0x93, 0xbe, 0x12, 0x07, 0xc5, 0xbe,
  0x11, 0xf4, 0x0c, 0xbf, 0xc5, 0x6d, 0xd4, 0x3d, 0x54, 0x0f, 0x0a, 0xbf,
  0x89, 0x9d, 0x24, 0xbf, 0x2a, 0x66, 0x24, 0xbd, 0xb8, 0x18, 0xf1, 0xbe,
  0xc9, 0xb3, 0x32, 0xbf, 0xfd, 0x95, 0xaa, 0xbe, 0xe2, 0x67, 0x5b, 0xbe,
  0x5e, 0x15, 0x89, 0xbd, 0xfe, 0x1d, 0xb5, 0xbe, 0xb9, 0x90, 0x6d, 0x3d,
  0x00, 0xcf, 0x89, 0xbe, 0x49, 0xff, 0x8d, 0xbe, 0xa1, 0xd5, 0x88, 0xbc,
  0x21, 0x1b, 0x01, 0xbe, 0xba, 0x34, 0x2f, 0x3d, 0x92, 0x54, 0x8d, 0x3d,
  0x8e, 0x77, 0xf8, 0xbc, 0xbe, 0x10, 0x07, 0xbf, 0xcd, 0xce, 0x47, 0xbd,
  0xa7, 0x7f, 0x23, 0x3d, 0x9a, 0x2c, 0x77, 0x3d, 0x6c, 0x30, 0x63, 0xbe,
  0x0b, 0x81, 0x2d, 0xbe, 0xca, 0x81, 0x2a, 0x3e, 0x13, 0xd2, 0x60, 0x3d,
  0x2f, 0xdc, 0x2d, 0x3d, 0xf6, 0x5d, 0xea, 0xbd, 0x3f, 0xf6, 0x2e, 0xbe,
  0xab, 0x0b, 0xb4, 0xbd, 0xdb, 0x11, 0x92, 0x3e, 0x89, 0x28, 0x83, 0x3d,
  0x87, 0xff, 0x96, 0x3e, 0xe5, 0xd4, 0x03, 0x3c, 0x5e, 0x9a, 0x00, 0x3f,
  0x86, 0x1c, 0x1b, 0xbe, 0xdf, 0xc5, 0xd7, 0xbd, 0xbd, 0x1c, 0x80, 0xbc,
  0xe5, 0x47, 0xcb, 0x3d, 0x7e, 0x4a, 0x8a, 0x3d, 0x71, 0xb7, 0x32, 0x3e,
  0xfa, 0x10, 0x9c, 0x3e, 0x64, 0xad, 0x37, 0xbe, 0x47, 0x3a, 0xbb, 0xbd,
  0x20, 0x9c, 0xb3, 0x3e, 0xe3, 0x83, 0x55, 0xbd, 0xba, 0x2d, 0x18, 0x3e,
  0x89, 0x8d, 0x56, 0xbe, 0xf5, 0xb9, 0x07, 0xbe, 0x01, 0x61, 0x70, 0x3d,
  0x4a, 0x45, 0x0a, 0xbe, 0x96, 0x9a, 0xbf, 0xbb, 0x75, 0xa9, 0xb1, 0x3d,
  0xc1, 0x64, 0xd4, 0x3d, 0xd3, 0x17, 0x35, 0xbe, 0x57, 0x31, 0x57, 0xbe,
  0xa4, 0xc7, 0x13, 0xbe, 0x74, 0x02, 0x99, 0xbe, 0x07, 0x96, 0xc8, 0xbe,
  0x6b, 0x09, 0xa4, 0x3d, 0x57, 0x09, 0xc1, 0xbb, 0x7d, 0xbc, 0xd5, 0xbe,
  0x76, 0xf1, 0xd7, 0x3d, 0x10, 0xb7, 0x2d, 0xbe, 0xdf, 0x75, 0x19, 0x3e,
  0x17, 0x80, 0x94, 0xbc, 0x25, 0x68, 0x35, 0x3d, 0x8a, 0x09, 0x2b, 0xbb,
  0x08, 0x6c, 0x0b, 0xbe, 0x62, 0x21, 0x84, 0x3b, 0x7c, 0x0b, 0x45, 0x3e,
  0x9f, 0x36, 0x85, 0xbe, 0xd1, 0x07, 0xa0, 0x3c, 0xf4, 0x45, 0x07, 0xbf,
  0x89, 0x03, 0x1e, 0xbf, 0x97, 0x54, 0xe4, 0xbd, 0xac, 0xe1, 0x1a, 0xbe,
  0x7c, 0x93, 0x98, 0xbe, 0xaa, 0x36, 0xcb, 0xbc, 0x45, 0x4e, 0x88, 0xbe,
  0xe3, 0x71, 0x2d, 0x3e, 0x74, 0xf4, 0xc5, 0xbe, 0x4d, 0x40, 0xea, 0xbd,
  0xf0, 0x1f, 0xb6, 0xbc, 0x12, 0x59, 0x2d, 0xbe, 0xcb, 0x6e, 0xa2, 0x3c,
  0x0e, 0x55, 0xef, 0x3d, 0xe6, 0x6a, 0xac, 0xbe, 0x9f, 0x3c, 0x68, 0xbd,
  0xc7, 0x1e, 0xc7, 0xbe, 0x1c, 0x0f, 0x53, 0xbe, 0xc3, 0x10, 0x9e, 0x3c,
  0x85, 0x9a, 0xac, 0xbe, 0xa8, 0x62, 0xb5, 0xbe, 0xab, 0x28, 0xa3, 0x3e,
  0xf5, 0x78, 0xf6, 0xbd, 0x42, 0xac, 0xce, 0xbd, 0xd2, 0x31, 0xb0, 0xbe,
  0xa5, 0xd0, 0x20, 0xbe, 0x75, 0x15, 0x01, 0x3c, 0x38, 0x71, 0xbd, 0xbd,
  0x1c, 0x67, 0xc2, 0x3e, 0xe1, 0x4c, 0x19, 0x3e, 0xf2, 0x71, 0x4f, 0x3d,
  0x07, 0x7c, 0x53, 0xbc, 0x7d, 0x70, 0x3b, 0x3e, 0x08, 0xcd, 0xa6, 0x3d,
  0xa5, 0x65, 0x90, 0x3d, 0x65, 0x7d, 0xf4, 0x3d, 0x1b, 0xdc, 0x76, 0xbe,
  0x93, 0xc8, 0x72, 0x3e, 0x52, 0x5d, 0x36, 0x3e, 0xfd, 0x76, 0x26, 0xbd,
  0x96, 0xff, 0x9c, 0xbd, 0x4b, 0xab, 0x65, 0x3e, 0xf2, 0x17, 0x83, 0xbd,
  0xd9, 0xa8, 0xf2, 0x3c, 0xd2, 0x88, 0x45, 0x3e, 0x5c, 0xee, 0x17, 0x3e,
  0x3e, 0x99, 0xc1, 0x3d, 0xdc, 0xcb, 0xbb, 0x3d, 0xc0, 0x91, 0xde, 0x3d,
  0x2c, 0xf7, 0x76, 0xba, 0xed, 0xd3, 0x2b, 0x3d, 0x62, 0xed, 0xd8, 0xbd,
  0x00, 0xd7, 0x88, 0xbc, 0x25, 0xdf, 0xc5, 0x3e, 0x35, 0xda, 0x26, 0xbd,
  0xc5, 0x5a, 0x0f, 0xbe, 0x2e, 0x58, 0x37, 0xbb, 0x2f, 0xb6, 0x6d, 0x3d,
  0x85, 0xf8, 0xf7, 0xbd, 0xba, 0x42, 0x77, 0x3e, 0xea, 0xf4, 0x1f, 0x3e,
  0x30, 0x8f, 0xa5, 0xbd, 0x9c, 0xe3, 0xfd, 0x3d, 0x53, 0x7f, 0xcd, 0xbd,
  0x28, 0x61, 0x38, 0x3c, 0x24, 0x43, 0x8e, 0xbd, 0x23, 0x38, 0x0e, 0xbe,
  0xc2, 0x81, 0x4d, 0x3c, 0xc8, 0xfc, 0x01, 0xbe, 0x4e, 0x88, 0xb7, 0x3d,
  0x40, 0x0d, 0x41, 0xbe, 0xa4, 0x3f, 0xb0, 0xbc, 0xdb, 0xbb, 0x83, 0xbd,
  0x28, 0xf8, 0x03, 0xbe, 0xd4, 0x5e, 0x66, 0xbe, 0xe0, 0x12, 0x57, 0xbd,
  0x5c, 0x81, 0x1f, 0xbd, 0x79, 0xb0, 0x06, 0xbe, 0x0c, 0x71, 0x85, 0xbe,
  0xbf, 0x35, 0x81, 0xbe, 0xf6, 0x61, 0xc9, 0xbd, 0x98, 0xc5, 0x4a, 0xbe,
  0xf8, 0xd2, 0x5c, 0xbd, 0xf1, 0x06, 0x86, 0x3e, 0x4c, 0x9f, 0xcc, 0xbd,
  0x3f, 0x46, 0xf4, 0x3d, 0xb6, 0x05, 0x4d, 0xbe, 0x55, 0x2e, 0x37, 0xbe,
  0x96, 0x13, 0xa7, 0xbc, 0x9a, 0xe8, 0x0c, 0x3e, 0xa1, 0x7a, 0xe6, 0xbd,
  0x3f, 0x5f, 0x47, 0x3d, 0xbe, 0xad, 0xbf, 0xba, 0x2a, 0xcf, 0xa1, 0x3c,
  0xbc, 0xfb, 0x70, 0x3e, 0xc7, 0xc3, 0x33, 0xbe, 0xb7, 0xd1, 0x1d, 0xbd,
  0x8a, 0x12, 0x49, 0x3c, 0xca, 0xc2, 0x61, 0xbd, 0x20, 0x77, 0x8f, 0xbd,
  0x9f, 0x41, 0xd8, 0x3d, 0x46, 0xb8, 0xf4, 0xbd, 0x2e, 0xe5, 0xc8, 0x3c,
  0x7d, 0x37, 0x49, 0xbe, 0x9c, 0x82, 0x80, 0x3d, 0xd2, 0xeb, 0x71, 0x3e,
  0x73, 0xb8, 0x96, 0xbe, 0xb2, 0xda, 0x8c, 0x3d, 0x4f, 0xbf, 0x9a, 0x3e,
  0xa0, 0xd9, 0x95, 0xbd, 0x05, 0xde, 0x02, 0xbe, 0x62, 0x81, 0x0f, 0xbc,
  0xb8, 0x50, 0xac, 0xbe, 0xd0, 0xb6, 0x97, 0x3d, 0x70, 0x99, 0x4a, 0xbc,
  0x8f, 0x99, 0x6b, 0x3d, 0x10, 0x46, 0x7e, 0xbe, 0x17, 0xe0, 0x8d, 0x3e,
  0x70, 0xeb, 0x06, 0x3d, 0x91, 0x27, 0x56, 0x3d, 0x64, 0x36, 0xea, 0x3d,
  0x70, 0xf8, 0xcd, 0x3d, 0x28, 0xfc, 0xb6, 0xbe, 0x39, 0x4b, 0x58, 0xbe,
  0xc8, 0x30, 0xf6, 0x3c, 0xe9, 0x87, 0x38, 0x3e, 0x8c, 0x69, 0x32, 0xbe,
  0xad, 0xe1, 0x9c, 0xbd, 0xa2, 0x09, 0x15, 0x3d, 0x01, 0xdf, 0xe8, 0x3d,
  0xc9, 0x4c, 0xa3, 0x3c, 0x6f, 0xae, 0xb5, 0x3d, 0x21, 0xd4, 0x47, 0xbe,
  0x39, 0x1f, 0xd4, 0xbd, 0x00, 0x91, 0x04, 0xbe, 0xd9, 0x99, 0x43, 0xbe,
  0x2e, 0xfe, 0xa5, 0xbc, 0x9d, 0x59, 0xe4, 0x3c, 0x3e, 0x28, 0xa9, 0xbe,
  0x14, 0x10, 0xf7, 0xbd, 0x0c, 0x5a, 0x13, 0x3e, 0x2b, 0x30, 0x8d, 0x3e,
  0xf2, 0x0f, 0x28, 0x3d, 0x54, 0x22, 0x54, 0xbe, 0xc4, 0x5e, 0x23, 0xbe,
  0xbd, 0x5a, 0x85, 0x3d, 0x51, 0x5f, 0x56, 0x3d, 0xb0, 0xf8, 0x1c, 0xbe,
  0x16, 0x7c, 0x47, 0xbe, 0x18, 0xb4, 0x30, 0x3d, 0x53, 0x15, 0x86, 0xbe,
  0xdf, 0xb2, 0x1b, 0x3d, 0x27, 0x21, 0x21, 0xbc, 0xb4, 0xa0, 0xdc, 0x3d,
  0x3e, 0x95, 0x6a, 0xbe, 0x51, 0x58, 0x23, 0x3e, 0x8f, 0xb0, 0x05, 0x3e,
  0xd7, 0xbf, 0xa7, 0x3e, 0x95, 0x65, 0x50, 0x3d, 0x78, 0x90, 0xc7, 0xbe,
  0xb3, 0xc2, 0xd8, 0xbd, 0x4f, 0x31, 0x68, 0x3d, 0x9b, 0x77, 0x6a, 0x3e,
  0xff, 0x50, 0x02, 0xbe, 0x75, 0xa1, 0x8d, 0xbe, 0xa3, 0x85, 0xf8, 0xbb,
  0x45, 0xcc, 0x84, 0xbd, 0x34, 0x42, 0x72, 0x3d, 0x67, 0x56, 0xb6, 0xbe,
  0x0d, 0x9f, 0x82, 0x3d, 0x62, 0xb6, 0xba, 0xbc, 0xce, 0xea, 0x6d, 0xbe,
  0x13, 0xa8, 0x99, 0xbd, 0x84, 0x5a, 0xbb, 0xbd, 0xdf, 0x5b, 0xd7, 0xbb,
  0x92, 0x8d, 0x54, 0xbe, 0x20, 0x53, 0x7b, 0xbd, 0x0c, 0x78, 0x86, 0xbe,
  0x9a, 0xc2, 0x14, 0x3b, 0xb4, 0xb8, 0x24, 0xbe, 0xd8, 0x36, 0x14, 0x3e,
  0x4f, 0xed, 0xca, 0xbd, 0x1c, 0xb2, 0xd9, 0xbd, 0xcf, 0x7a, 0x95, 0x3d,
  0x47, 0xbc, 0x69, 0xbe, 0x5a, 0x54, 0x1d, 0x3e, 0x14, 0x36, 0x80, 0xbe,
  0xd5, 0xbb, 0x46, 0xbc, 0xe4, 0x8b, 0x6a, 0xbe, 0x75, 0xe1, 0x3c, 0xbd,
  0x2b, 0x07, 0x91, 0xbd, 0xc3, 0x3b, 0xcf, 0xba, 0x0a, 0x04, 0x09, 0x3e,
  0x66, 0xc1, 0x4b, 0x3e, 0x90, 0x91, 0x59, 0x3d, 0xf4, 0x32, 0xf6, 0xbd,
  0x63, 0x46, 0x7e, 0x3e, 0xb3, 0x1a, 0x71, 0x3d, 0x0e, 0x55, 0x5a, 0xbe,
  0xbe, 0x29, 0xac, 0x3e, 0xdf, 0xd7, 0xa5, 0xbe, 0x50, 0xf7, 0x7b, 0x3e,
  0xaa, 0xe2, 0xac, 0xbe, 0xe6, 0xb9, 0xa3, 0xbd, 0x99, 0x6d, 0xcf, 0xbd,
  0xfe, 0xa9, 0x7a, 0x3e, 0xe3, 0x46, 0x20, 0x3e, 0x63, 0x0b, 0x1a, 0x3e,
  0x8e, 0x7f, 0x9c, 0x3e, 0x2d, 0x85, 0x5f, 0xbe, 0xb4, 0x8d, 0xa5, 0x3e,
  0xd7, 0x53, 0x80, 0xbe, 0x01, 0x0d, 0x11, 0xbd, 0xd7, 0xca, 0x99, 0xbd,
  0x79, 0xf1, 0xa6, 0xbe, 0x71, 0xd3, 0x1d, 0x3e, 0xa2, 0xa3, 0x1f, 0x3c,
  0x3e, 0xba, 0xb9, 0x3c, 0x33, 0x40, 0xca, 0xbe, 0x73, 0x25, 0xb9, 0xbd,
  0x16, 0xc8, 0x61, 0x3d, 0xd4, 0x49, 0x11, 0xbc, 0x6e, 0x39, 0xc3, 0xbd,
  0xc4, 0xb7, 0x91, 0xbd, 0x64, 0xcf, 0xa7, 0x3e, 0xdf, 0x1a, 0x04, 0xbe,
  0x55, 0xf4, 0xb4, 0x3d, 0x68, 0x0d, 0x68, 0x3d, 0xb4, 0x76, 0xcb, 0x3e,
  0x86, 0xbb, 0x76, 0x3d, 0xa1, 0x33, 0xe3, 0xbd, 0x2e, 0xb3, 0x2b, 0x3d,
  0x48, 0x75, 0x73, 0xbe, 0xc1, 0x72, 0x21, 0xbb, 0x58, 0x6b, 0x4f, 0xbe,
  0x97, 0xbb, 0xf3, 0xbd, 0xbe, 0xa9, 0xa8, 0x3d, 0x7e, 0x39, 0x40, 0x3d,
  0x6a, 0xfb, 0x2d, 0xbe, 0x61, 0x71, 0x48, 0xbe, 0x24, 0xab, 0x8d, 0x3e,
  0xaa, 0x1f, 0x36, 0x3e, 0xea, 0xb6, 0x8e, 0xbd, 0x23, 0x94, 0x38, 0x3c,
  0x8b, 0x13, 0xed, 0x3e, 0x56, 0xa7, 0xbd, 0x3e, 0x07, 0x2c, 0xd3, 0x3d,
  0xaf, 0xa4, 0x13, 0x3e, 0xe4, 0x81, 0xb8, 0xbd, 0x2b, 0x83, 0x2f, 0x3e,
  0x9f, 0x26, 0x30, 0xbe, 0x83, 0x46, 0x42, 0xbe, 0x4f, 0xe8, 0x77, 0xbe,
  0x6f, 0xeb, 0xfc, 0xbc, 0x0c, 0x24, 0xc4, 0x3d, 0xee, 0x67, 0x38, 0x3e,
  0x4c, 0x28, 0x62, 0x3e, 0x2f, 0xdf, 0xef, 0x3d, 0xef, 0xb3, 0x40, 0xbd,
  0x77, 0xe8, 0xa3, 0x3d, 0xbc, 0xed, 0x8d, 0x3d, 0x6a, 0xd2, 0xa3, 0x3d,
  0xe6, 0x6c, 0x77, 0xbe, 0x22, 0x80, 0x8e, 0x3d, 0xec, 0xc3, 0x84, 0xbe,
  0x99, 0x75, 0x51, 0x3e, 0x4e, 0xda, 0x61, 0xbe, 0x3c, 0xb1, 0x0c, 0xbe,
  0x73, 0xed, 0xb4, 0xbd, 0xce, 0xb3, 0x1a, 0x3d, 0x6f, 0x79, 0x88, 0x3d,
  0xce, 0x97, 0xe1, 0x3d, 0xd8, 0x58, 0x42, 0xbe, 0x76, 0x4c, 0x92, 0xbe,
  0xf7, 0xe0, 0x43, 0xbe, 0xf8, 0x89, 0x0e, 0x3e, 0x0e, 0x93, 0x0b, 0x3d,
  0x97, 0x48, 0x0e, 0xbe, 0x94, 0x1e, 0x37, 0xbe, 0xf7, 0x42, 0x9b, 0xba,
  0x6e, 0xb9, 0x28, 0xbd, 0x06, 0x18, 0x3f, 0xbe, 0xa8, 0x42, 0x95, 0xbe,
  0x46, 0xcc, 0x37, 0xbd, 0xcf, 0x23, 0xd5, 0xbc, 0xab, 0x4c, 0xf5, 0x3c,
  0x09, 0x6f, 0x20, 0xbe, 0xb5, 0xc3, 0x92, 0xbe, 0xf2, 0xbc, 0x1e, 0xbd,
  0x05, 0x3a, 0xf2, 0xbd, 0xf2, 0xb0, 0x0a, 0x3e, 0x01, 0x2f, 0xf5, 0xbe,
  0x30, 0xc7, 0xf0, 0xbc, 0x73, 0x46, 0x70, 0xbe, 0xa4, 0xaf, 0xff, 0xbe,
  0x60, 0xf7, 0xf9, 0xbd, 0x31, 0x9f, 0x40, 0xbf, 0xdf, 0x9c, 0x64, 0xbe,
  0xb8, 0xc5, 0x3a, 0xbc, 0x78, 0x5f, 0xb1, 0x3d, 0xe4, 0x24, 0x58, 0xbe,
  0x98, 0xa4, 0xe3, 0xbe, 0x4e, 0x3b, 0x5b, 0xbd, 0x6e, 0x0c, 0x15, 0xbf,
  0x54, 0x86, 0x04, 0xbf, 0x9f, 0xcc, 0x35, 0xbe, 0x56, 0x0d, 0x10, 0x3c,
  0x85, 0xd7, 0xd3, 0xbe, 0x51, 0x6d, 0xa0, 0xbe, 0xb8, 0x33, 0x0d, 0xbf,
  0xbf, 0xd2, 0x86, 0xbe, 0x2c, 0x1e, 0x7b, 0x3d, 0x14, 0xbf, 0x21, 0xbf,
  0x27, 0x5b, 0xc6, 0xbd, 0x66, 0xb5, 0x80, 0xbb, 0x65, 0xf9, 0xf5, 0x3d,
  0xd3, 0x73, 0xab, 0xbc, 0x31, 0x15, 0x5c, 0xbe, 0x51, 0xf5, 0x87, 0xbd,
  0xe3, 0x2e, 0x15, 0xbf, 0x7a, 0xcd, 0x20, 0xbf, 0x54, 0xa5, 0xab, 0xbe,
  0xef, 0x5b, 0xbc, 0xbc, 0xfd, 0x45, 0x28, 0xbf, 0x46, 0x2b, 0x1d, 0xbf,
  0x69, 0xc8, 0x8c, 0xbe, 0x0d, 0x22, 0xaa, 0xbe, 0xd0, 0xf1, 0xb5, 0x3d,
  0xa4, 0x9e, 0xb4, 0xbe, 0x00, 0xdf, 0x40, 0xbe, 0x52, 0x26, 0xa1, 0xbb,
  0x74, 0xb6, 0x0b, 0xbe, 0xd2, 0x2f, 0x12, 0xbe, 0x71, 0xd2, 0xac, 0xbe,
  0xe2, 0x7b, 0x0d, 0xbe, 0x6a, 0xc2, 0x38, 0xbf, 0x02, 0x33, 0x6c, 0xbf,
  0x68, 0xbf, 0x24, 0xbf, 0xc8, 0x5e, 0x14, 0xbd, 0xed, 0xff, 0x91, 0xbe,
  0x67, 0x6b, 0x2b, 0xbf, 0x04, 0xa8, 0x09, 0xbf, 0xe3, 0x1b, 0x00, 0xbf,
  0xd8, 0x8b, 0x20, 0xbd, 0xed, 0x0c, 0x1e, 0xbf, 0x67, 0x06, 0x88, 0xbd,
  0xcc, 0xe6, 0xd3, 0xbb, 0x4f, 0x90, 0x18, 0xbe, 0xd9, 0xd4, 0x69, 0xbd,
  0xf4, 0x40, 0xca, 0xbe, 0xb1, 0xb2, 0x7c, 0xbe, 0xbf, 0x5a, 0x2b, 0xbf,
  0x70, 0x9f, 0x41, 0xbf, 0x00, 0x85, 0xa5, 0xbd, 0xef, 0xd0, 0xc9, 0xbd,
  0x53, 0xbc, 0x9d, 0xbc, 0xdc, 0x41, 0xc9, 0xbe, 0x7a, 0x15, 0xf0, 0x3e,
  0x8a, 0xec, 0x7e, 0xbe, 0xc5, 0x67, 0xe2, 0x3a, 0xd1, 0x70, 0x01, 0xbf,
  0xd2, 0xab, 0xbd, 0x3e, 0x2e, 0xe0, 0x75, 0xbb, 0x48, 0x4a, 0xf0, 0xbb,
  0x9f, 0xc1, 0x87, 0xbe, 0x2c, 0x81, 0xb0, 0xbe, 0xcc, 0x31, 0x7b, 0x3d,
  0x9d, 0x17, 0xa7, 0xbd, 0x46, 0xff, 0xf5, 0x3e, 0xbc, 0x0c, 0x0e, 0x3d,
  0x47, 0xd5, 0x82, 0xbd, 0x3e, 0x53, 0x01, 0xbd, 0x56, 0x99, 0x8f, 0xbe,
  0x75, 0x02, 0xcf, 0x3e, 0x81, 0xb0, 0x65, 0x3d, 0x77, 0x4e, 0xde, 0xbd,
  0x50, 0x53, 0xb3, 0xbe, 0xd1, 0xbf, 0x79, 0x3e, 0x25, 0x3d, 0x73, 0x3c,
  0x46, 0x55, 0x94, 0x3b, 0xe9, 0x2f, 0xf7, 0xbd, 0x21, 0x6e, 0x84, 0xbe,
  0x58, 0xb5, 0x94, 0xbd, 0x6d, 0xc3, 0x4f, 0x3d, 0xad, 0x4b, 0x3f, 0x3e,
  0xc6, 0xbd, 0xd4, 0x3d, 0xc9, 0xc0, 0x61, 0xbd, 0x8e, 0xf7, 0x36, 0xbe,
  0xe5, 0x06, 0x4c, 0xbd, 0x4d, 0x91, 0xb3, 0x3d, 0xd8, 0xe1, 0xa6, 0x3e,
  0xca, 0xa5, 0x98, 0xbe, 0xa2, 0x6a, 0x45, 0xbb, 0x6d, 0xfe, 0xd5, 0x3e,
  0x3b, 0x31, 0xc8, 0xbd, 0x08, 0xae, 0xec, 0xbc, 0x4f, 0x88, 0xb1, 0x3d,
  0x6e, 0x6e, 0xde, 0xbd, 0xa1, 0x55, 0x84, 0x3c, 0x4f, 0x7e, 0xa3, 0x3d,
  0x84, 0x41, 0x50, 0x3e, 0x09, 0x86, 0x8c, 0x3c, 0xb2, 0xdb, 0xe8, 0x3d,
  0x1c, 0xad, 0x22, 0xbe, 0x8b, 0x25, 0xfb, 0xbe, 0x00, 0xb9, 0x13, 0x3e,
  0xa5, 0xb8, 0xff, 0xbc, 0x32, 0x55, 0xdd, 0x3e, 0xf3, 0xcb, 0x99, 0xbe,
  0xaa, 0x4e, 0x3c, 0x3e, 0xa6, 0x50, 0x32, 0xbc, 0x0f, 0xda, 0xc1, 0x3d,
  0x28, 0xa0, 0x4d, 0xbe, 0x45, 0x8a, 0xb2, 0xbe, 0x67, 0xbd, 0x30, 0x3c,
  0xf1, 0x4d, 0xd1, 0x3d, 0x1e, 0x0e, 0x32, 0x3e, 0xfd, 0x6e, 0xc4, 0x3d,
  0x9c, 0x2d, 0xc1, 0xbd, 0x40, 0x25, 0x7c, 0xbe, 0x7c, 0xbd, 0x17, 0xbe,
  0x16, 0x88, 0x6c, 0x3e, 0x20, 0x82, 0x0f, 0x3e, 0x2f, 0x56, 0xa7, 0x3e,
  0x70, 0x11, 0x0c, 0xbe, 0x82, 0x0c, 0x5f, 0x3e, 0x2c, 0xd4, 0xd6, 0x3c,
  0x85, 0x7f, 0x96, 0xbd, 0xe4, 0xbb, 0xcd, 0xbd, 0x0e, 0xc6, 0x1c, 0xbe,
  0x8c, 0x32, 0x1c, 0xbe, 0x15, 0x07, 0x8e, 0xbd, 0x5e, 0xdc, 0xa6, 0xbd,
  0x5b, 0x57, 0xbc, 0xbd, 0x8f, 0xc1, 0x2c, 0xbe, 0x44, 0x79, 0xa9, 0xbe,
  0x6a, 0x81, 0x7a, 0x3c, 0x56, 0x39, 0xd1, 0x3d, 0x8d, 0xae, 0x34, 0x3e,
  0x64, 0x89, 0x97, 0x3e, 0xa4, 0xdd, 0x5f, 0xbd, 0xcd, 0xe5, 0xe9, 0x3d,
  0x52, 0x45, 0xb8, 0x3c, 0xb4, 0x61, 0xda, 0x3d, 0x23, 0x85, 0xc7, 0xbe,
  0xe9, 0x7c, 0x97, 0xbe, 0xfa, 0x38, 0x50, 0xbe, 0x52, 0x27, 0x3c, 0x3d,
  0x6a, 0x94, 0x89, 0x3e, 0x12, 0xa1, 0x90, 0xbd, 0x4c, 0xbd, 0x1f, 0xbe,
  0x79, 0x25, 0xa1, 0xbe, 0x02, 0x2a, 0xd7, 0xbd, 0x9e, 0x96, 0x00, 0x3e,
  0xf9, 0xf5, 0x12, 0x3e, 0xac, 0xd5, 0x88, 0x3e, 0xdd, 0xa1, 0x1b, 0xbd,
  0x2a, 0x00, 0x99, 0xbd, 0x9d, 0xb6, 0x0e, 0x3d, 0x37, 0xe1, 0xb5, 0xbd,
  0x4a, 0x26, 0x09, 0xbe, 0xbd, 0xd4, 0xda, 0x3d, 0x91, 0x65, 0x8a, 0xbe,
  0x72, 0x4f, 0xc7, 0x3d, 0x23, 0xd7, 0x19, 0x3d, 0x93, 0x83, 0x08, 0xbe,
  0x1e, 0x2b, 0x52, 0xbe, 0x72, 0x54, 0xae, 0xbd, 0xae, 0x3e, 0xbb, 0xbd,
  0x42, 0xca, 0x22, 0x3d, 0xdb, 0x52, 0x2e, 0x3e, 0x48, 0x4a, 0x27, 0x3e,
  0x9e, 0x26, 0x80, 0xbd, 0x6a, 0x94, 0xc2, 0x3d, 0x69, 0xf9, 0x3c, 0x3c,
  0xa8, 0x1c, 0xb0, 0x3b, 0xe7, 0x78, 0x4a, 0xbe, 0xc7, 0x3e, 0x93, 0xbc,
  0x36, 0x96, 0x9a, 0xbd, 0x6f, 0x95, 0xca, 0x3d, 0xec, 0xec, 0xa5, 0x3e,
  0x28, 0xac, 0xab, 0xbe, 0xd8, 0x2b, 0xa3, 0xbe, 0x4a, 0xcf, 0x7c, 0xbe,
  0xab, 0xb0, 0x10, 0xbf, 0xac, 0x60, 0x8a, 0x3e, 0xa5, 0x6a, 0x28, 0x3e,
  0xfe, 0x0f, 0x23, 0x3e, 0x45, 0x88, 0x6e, 0xbe, 0x30, 0x84, 0x9b, 0xbd,
  0x84, 0x96, 0x53, 0x3c, 0xf7, 0xa7, 0x86, 0xbc, 0x58, 0x45, 0x26, 0xbf,
  0x30, 0x7e, 0xaf, 0xbe, 0x2d, 0x1a, 0xc4, 0xbe, 0x2f, 0xce, 0xa8, 0x3d,
  0xc5, 0xfd, 0x8b, 0x3c, 0xe3, 0x60, 0x33, 0xbe, 0xa8, 0x49, 0x4d, 0xbe,
  0xbb, 0xe8, 0x03, 0x3d, 0x90, 0x41, 0x30, 0xba, 0x68, 0x67, 0x0d, 0x3e,
  0xac, 0xa8, 0x75, 0x3d, 0x93, 0x51, 0x80, 0x3e, 0x60, 0x7f, 0xce, 0xbc,
  0x71, 0xf4, 0x1b, 0x3e, 0x14, 0x32, 0x37, 0x3d, 0x63, 0xde, 0xdc, 0xbd,
  0x24, 0x3f, 0x07, 0x3e, 0x21, 0x7e, 0xf9, 0xbd, 0x4b, 0x2f, 0x09, 0xbd,
  0xaa, 0x3e, 0x98, 0x3d, 0xf6, 0x73, 0x9b, 0x3e, 0xf3, 0xf4, 0x6a, 0xbe,
  0xfc, 0xc8, 0xaa, 0xbe, 0xd8, 0xae, 0x47, 0x3e, 0xb4, 0x8c, 0xfb, 0xbd,
  0xee, 0x95, 0x97, 0x3e, 0xb9, 0xa9, 0x03, 0xbe, 0x2b, 0x26, 0x9b, 0xbd,
  0x87, 0xf0, 0x29, 0xbe, 0xd3, 0x6b, 0x9a, 0x3d, 0xbe, 0xa6, 0xd9, 0xbe,
  0x1e, 0x73, 0x19, 0xbe, 0x53, 0xda, 0xaf, 0xbd, 0xfa, 0x06, 0x25, 0xbd,
  0xe6, 0x35, 0x1d, 0xbe, 0x46, 0xb6, 0x1b, 0xbe, 0x8c, 0x80, 0xc5, 0xbd,
  0x59, 0x80, 0x35, 0xbe, 0x27, 0x7e, 0x22, 0xbe, 0x69, 0xf6, 0xdc, 0x3d,
  0x27, 0x38, 0x5d, 0x3e, 0x37, 0x63, 0xa6, 0x3e, 0xfd, 0x51, 0x10, 0x3e,
  0x3e, 0x8e, 0x54, 0x3d, 0xed, 0x31, 0x7c, 0xbd, 0x54, 0xbb, 0xc6, 0x3d,
  0xfc, 0x6e, 0xde, 0xbe, 0xaf, 0x35, 0xd2, 0x3c, 0xfe, 0x17, 0xbb, 0x3e,
  0xd1, 0xe5, 0xa7, 0x3e, 0x67, 0x01, 0x00, 0x3d, 0x63, 0x8d, 0xaf, 0xbd,
  0xa7, 0xa7, 0x6c, 0xbc, 0x1c, 0x7b, 0xda, 0x3d, 0x01, 0xb2, 0x83, 0xbd,
  0x08, 0x80, 0x1e, 0x3d, 0xc2, 0xec, 0x4b, 0xbd, 0x83, 0x88, 0xa9, 0x3e,
  0x75, 0xe9, 0x95, 0x3c, 0xf8, 0x5d, 0xb4, 0xbd, 0xe1, 0xc3, 0x10, 0x3e,
  0x72, 0x71, 0xb1, 0x3e, 0xc1, 0x74, 0xce, 0xbe, 0xa7, 0x32, 0x93, 0x3e,
  0xc5, 0x5c, 0x22, 0x3d, 0x14, 0x4b, 0xd2, 0x3e, 0xcb, 0x97, 0xa1, 0xbd,
  0xc9, 0x72, 0x02, 0xbe, 0xfb, 0x82, 0x02, 0xbe, 0xad, 0x93, 0x09, 0xbe,
  0x05, 0xab, 0x1e, 0xbe, 0x6c, 0xff, 0x8e, 0x3d, 0x1f, 0x02, 0x04, 0xbe,
  0xa6, 0x4f, 0x5b, 0x3d, 0xdd, 0x96, 0x43, 0x3d, 0x7c, 0x51, 0x74, 0xbd,
  0x57, 0xa3, 0x22, 0xbe, 0xb2, 0x66, 0x7f, 0xbc, 0x9b, 0x81, 0x90, 0xbe,
  0x2f, 0xe3, 0xa9, 0xbd, 0xa3, 0x17, 0x41, 0x3e, 0x4d, 0xaf, 0xc3, 0x3d,
  0x3e, 0x82, 0x8e, 0xbb, 0x5f, 0xf1, 0x5a, 0xbd, 0x0d, 0xfe, 0xe6, 0x3c,
  0x38, 0xa3, 0x60, 0xbd, 0x25, 0x81, 0x50, 0x3d, 0xe2, 0xf3, 0x4c, 0x3e,
  0x07, 0x65, 0x67, 0xbe, 0x3b, 0x3a, 0xda, 0xbd, 0x2d, 0x5e, 0x28, 0xbd,
  0x37, 0xa6, 0x7d, 0xbd, 0x13, 0x4d, 0xd6, 0x3c, 0xba, 0x3f, 0xf7, 0xbc,
  0x8d, 0x65, 0x96, 0xbe, 0x8a, 0xa1, 0xe1, 0x3d, 0xa0, 0xea, 0xe4, 0x3d,
  0x5e, 0xc2, 0x90, 0x3e, 0x35, 0x84, 0x2a, 0x3d, 0x7e, 0x91, 0x2b, 0xbe,
  0xce, 0x06, 0x51, 0xbe, 0xc8, 0x1b, 0x1d, 0xbe, 0xeb, 0x84, 0x80, 0x3d,
  0x75, 0x8e, 0x9b, 0x3d, 0xf1, 0xc4, 0xe7, 0xbd, 0xb4, 0x58, 0xa7, 0x3e,
  0x66, 0x29, 0x35, 0xbd, 0x7d, 0xb4, 0x27, 0xbe, 0x84, 0xa9, 0xa5, 0x3d,
  0x0d, 0x22, 0x38, 0xbe, 0xd4, 0xc2, 0x3c, 0xbe, 0x52, 0xa6, 0xb0, 0x3c,
  0x74, 0x90, 0x1b, 0x3f, 0x57, 0x84, 0xcd, 0x3e, 0xf5, 0x81, 0xc0, 0x3d,
  0x49, 0x76, 0xfb, 0x38, 0x9b, 0x50, 0x9c, 0xbe, 0x10, 0xfd, 0x0b, 0xbe,
  0x7a, 0x84, 0xc9, 0x3e, 0xf7, 0x0d, 0x39, 0xbc, 0x9c, 0x18, 0xee, 0xbe,
  0x74, 0x54, 0x67, 0xbe, 0x7f, 0x40, 0x4e, 0xbd, 0xe6, 0x25, 0xfa, 0x3d,
  0xe2, 0x54, 0x4d, 0xbe, 0x67, 0xaa, 0xa8, 0x3e, 0x56, 0x51, 0x74, 0x3c,
  0xde, 0x1d, 0x7c, 0x3e, 0x65, 0xb1, 0xeb, 0x3d, 0x12, 0x07, 0x3d, 0x3e,
  0xfb, 0x59, 0x3a, 0x3b, 0x36, 0x8c, 0x01, 0xbe, 0x55, 0x2d, 0xa8, 0xbe,
  0xeb, 0x36, 0x0c, 0xbe, 0xd7, 0x7b, 0x00, 0x3e, 0x25, 0x39, 0x01, 0xbf,
  0x26, 0x12, 0x9f, 0xbd, 0x27, 0x61, 0x3f, 0x3c, 0x48, 0xef, 0xb1, 0x3c,
  0xc3, 0xb7, 0x0e, 0x3d, 0x58, 0x01, 0xe6, 0x3a, 0x19, 0xf8, 0x16, 0xbe,
  0x17, 0xc6, 0x5d, 0xbd, 0xc8, 0x14, 0x55, 0x3c, 0xcc, 0x34, 0xb6, 0xbe,
  0x80, 0x79, 0xd0, 0xbe, 0x45, 0xff, 0x3e, 0xbd, 0x65, 0x5f, 0x82, 0xbd,
  0x89, 0x8f, 0x50, 0xbe, 0x27, 0xd2, 0x13, 0x3d, 0x8f, 0xf9, 0x48, 0xbe,
  0x0b, 0x69, 0xb8, 0xbe, 0x35, 0x25, 0x34, 0xbd, 0xe7, 0xa1, 0x54, 0x3c,
  0x99, 0x82, 0xc0, 0x3e, 0x5c, 0xdf, 0x3d, 0x3e, 0x0a, 0x06, 0xa4, 0x3d,
  0x3d, 0x79, 0x27, 0x3e, 0xaa, 0x9e, 0x30, 0xbe, 0x55, 0xa0, 0x2b, 0x3d,
  0x9b, 0x85, 0x61, 0xbe, 0x22, 0x7d, 0xad, 0xbe, 0xd2, 0xbb, 0x44, 0xbd,
  0xc2, 0xdc, 0x37, 0x3c, 0xb4, 0x1f, 0x2a, 0xbc, 0xeb, 0xbc, 0x44, 0x3d,
  0x86, 0xa5, 0x35, 0xbe, 0xf3, 0xe5, 0x0d, 0xbf, 0xbe, 0x05, 0x58, 0x3d,
  0xd5, 0x83, 0x41, 0xbe, 0x8b, 0x08, 0x7d, 0x3e, 0xcd, 0xc3, 0x3a, 0x3d,
  0x3e, 0x6c, 0x6a, 0x3e, 0x0e, 0x2a, 0x3d, 0xbd, 0xd0, 0x8c, 0x86, 0xbe,
  0x32, 0xd7, 0xd9, 0xbd, 0x29, 0x00, 0xa9, 0xbe, 0x46, 0xf4, 0x02, 0xbe,
  0x46, 0xef, 0xd3, 0xbb, 0x90, 0x88, 0xda, 0x3d, 0x4a, 0x8c, 0x83, 0xbd,
  0x95, 0x3c, 0x82, 0x3d, 0x08, 0xda, 0x5f, 0xbe, 0x11, 0xe6, 0x00, 0xbf,
  0x0e, 0x28, 0x33, 0x3e, 0xf4, 0xfd, 0x19, 0xba, 0xd2, 0xfd, 0x1e, 0x3e,
  0xf1, 0x1f, 0x5b, 0x3e, 0x09, 0xda, 0x35, 0x3d, 0x7b, 0xcc, 0x6d, 0xbd,
  0x49, 0xb5, 0x95, 0xbe, 0x75, 0xf2, 0x37, 0x3d, 0x74, 0xec, 0xb3, 0xbe,
  0x08, 0x35, 0x78, 0xbc, 0x0f, 0xf7, 0x00, 0xbe, 0xca, 0x4f, 0xa7, 0x3d,
  0x12, 0x40, 0x45, 0x3e, 0xb9, 0xf5, 0x4b, 0x3d, 0xa0, 0x1b, 0xb0, 0xbe,
  0xe8, 0x54, 0x14, 0xbf, 0xad, 0x8d, 0xce, 0xbd, 0xf1, 0xdc, 0x4c, 0xbe,
  0x1d, 0x8e, 0x07, 0x3e, 0x9d, 0xe6, 0xdd, 0x3d, 0x57, 0x17, 0x01, 0x3e,
  0xce, 0x20, 0x8e, 0x3b, 0x10, 0xdc, 0xda, 0xbe, 0xf8, 0xe6, 0x50, 0xbe,
  0xe1, 0x0d, 0xca, 0xbe, 0xb2, 0xf2, 0x1a, 0xbd, 0xae, 0xb6, 0x0a, 0xbe,
  0x61, 0xdb, 0x95, 0xbc, 0x54, 0x11, 0x93, 0x3b, 0xc2, 0x48, 0xc8, 0xbd,
  0xf0, 0x30, 0xbd, 0xbe, 0xbb, 0x29, 0xeb, 0xbe, 0xaf, 0xd0, 0x11, 0xbc,
  0x24, 0x4c, 0x88, 0x3d, 0x54, 0x0d, 0x53, 0x3e, 0x19, 0xa6, 0xac, 0x3e,
  0x83, 0xee, 0xf0, 0x3d, 0x1f, 0x86, 0x14, 0x3e, 0x14, 0xd6, 0x62, 0xbe,
  0x63, 0x03, 0x37, 0xbd, 0x8e, 0x5a, 0xfb, 0xbe, 0x14, 0xfb, 0x46, 0xbe,
  0x4a, 0xd0, 0x49, 0xbe, 0xe6, 0xd1, 0xb1, 0x3d, 0xb2, 0xde, 0x1e, 0xbc,
  0x9e, 0xd3, 0x03, 0xbe, 0xc5, 0x56, 0x8a, 0xbe, 0xb7, 0x18, 0x37, 0xbe,
  0x85, 0xc5, 0xed, 0xbd, 0x06, 0xe7, 0xa9, 0x3c, 0xb0, 0x5b, 0x2e, 0x3e,
  0xd0, 0x48, 0x21, 0x3d, 0xb6, 0xdf, 0x11, 0xbd, 0x12, 0x06, 0x6a, 0xbe,
  0xe1, 0x4c, 0xaa, 0xbe, 0x13, 0x14, 0x3c, 0x3d, 0x77, 0xce, 0xab, 0x3d,
  0xbe, 0x27, 0xb0, 0x3d, 0xe8, 0x1e, 0x9f, 0xbe, 0x46, 0x4b, 0x07, 0x3e,
  0x9f, 0x89, 0x44, 0xbe, 0x62, 0xfd, 0xff, 0xff, 0x10, 0x00, 0x00, 0x00,
  0x07, 0x00, 0x00, 0x00, 0x14, 0x00, 0x00, 0x00, 0x2c, 0x00, 0x00, 0x00,
  0x02, 0x00, 0x00, 0x00, 0x10, 0x00, 0x00, 0x00, 0x70, 0x00, 0x00, 0x00,
  0x17, 0x00, 0x00, 0x00, 0x73, 0x65, 0x71, 0x75, 0x65, 0x6e, 0x74, 0x69,
  0x61, 0x6c, 0x2f, 0x64, 0x65, 0x6e, 0x73, 0x65, 0x2f, 0x4d, 0x61, 0x74,
  0x4d, 0x75, 0x6c, 0x00, 0xcc, 0xfc, 0xff, 0xff, 0xd6, 0xfd, 0xff, 0xff,
  0x04, 0x00, 0x00, 0x00, 0x08, 0x00, 0x00, 0x00, 0xff, 0xff, 0xff, 0xff,
  0x70, 0x00, 0x00, 0x00, 0x00, 0x00, 0x0e, 0x00, 0x18, 0x00, 0x08, 0x00,
  0x07, 0x00, 0x0c, 0x00, 0x10, 0x00, 0x14, 0x00, 0x0e, 0x00, 0x00, 0x00,
  0x00, 0x00, 0x00, 0x02, 0x10, 0x00, 0x00, 0x00, 0x06, 0x00, 0x00, 0x00,
  0x10, 0x00, 0x00, 0x00, 0x2c, 0x00, 0x00, 0x00, 0x01, 0x00, 0x00, 0x00,
  0x02, 0x00, 0x00, 0x00, 0x18, 0x00, 0x00, 0x00, 0x73, 0x65, 0x71, 0x75,
  0x65, 0x6e, 0x74, 0x69, 0x61, 0x6c, 0x2f, 0x66, 0x6c, 0x61, 0x74, 0x74,
  0x65, 0x6e, 0x2f, 0x43, 0x6f, 0x6e, 0x73, 0x74, 0x00, 0x00, 0x00, 0x00,
  0x34, 0xfd, 0xff, 0xff, 0x3e, 0xfe, 0xff, 0xff, 0x04, 0x00, 0x00, 0x00,
  0x10, 0x00, 0x00, 0x00, 0xce, 0x77, 0x8f, 0xbf, 0xc7, 0xaf, 0x65, 0xc0,
  0xf4, 0x8f, 0x52, 0xbe, 0x2f, 0x31, 0xb1, 0x3f, 0x26, 0xfe, 0xff, 0xff,
  0x10, 0x00, 0x00, 0x00, 0x05, 0x00, 0x00, 0x00, 0x10, 0x00, 0x00, 0x00,
  0x44, 0x00, 0x00, 0x00, 0x01, 0x00, 0x00, 0x00, 0x04, 0x00, 0x00, 0x00,
  0x32, 0x00, 0x00, 0x00, 0x73, 0x65, 0x71, 0x75, 0x65, 0x6e, 0x74, 0x69,
  0x61, 0x6c, 0x2f, 0x64, 0x65, 0x6e, 0x73, 0x65, 0x5f, 0x31, 0x2f, 0x42,
  0x69, 0x61, 0x73, 0x41, 0x64, 0x64, 0x2f, 0x52, 0x65, 0x61, 0x64, 0x56,
  0x61, 0x72, 0x69, 0x61, 0x62, 0x6c, 0x65, 0x4f, 0x70, 0x2f, 0x72, 0x65,
  0x73, 0x6f, 0x75, 0x72, 0x63, 0x65, 0x00, 0x00, 0xa8, 0xfd, 0xff, 0xff,
  0xb2, 0xfe, 0xff, 0xff, 0x04, 0x00, 0x00, 0x00, 0x40, 0x00, 0x00, 0x00,
  0xc3, 0x92, 0xd3, 0x3e, 0x78, 0xe7, 0x9d, 0x3e, 0xa8, 0xfc, 0x4a, 0x3f,
  0x1a, 0x86, 0x20, 0xc0, 0x63, 0xf4, 0x7b, 0xbf, 0x7c, 0x46, 0xa3, 0x3e,
  0x51, 0xe2, 0xdd, 0xbf, 0x77, 0xdf, 0xd3, 0x3f, 0xb2, 0xee, 0x16, 0xbf,
  0xf5, 0x0f, 0x84, 0xbe, 0xda, 0x67, 0xcb, 0xbe, 0x7e, 0xd1, 0x8c, 0xbe,
  0xae, 0xa1, 0x82, 0xbf, 0x04, 0xd9, 0xd1, 0x3f, 0x85, 0xe4, 0xd7, 0xbe,
  0x9d, 0xf2, 0xe9, 0x3d, 0xca, 0xfe, 0xff, 0xff, 0x10, 0x00, 0x00, 0x00,
  0x04, 0x00, 0x00, 0x00, 0x10, 0x00, 0x00, 0x00, 0x44, 0x00, 0x00, 0x00,
  0x01, 0x00, 0x00, 0x00, 0x10, 0x00, 0x00, 0x00, 0x30, 0x00, 0x00, 0x00,
  0x73, 0x65, 0x71, 0x75, 0x65, 0x6e, 0x74, 0x69, 0x61, 0x6c, 0x2f, 0x64,
  0x65, 0x6e, 0x73, 0x65, 0x2f, 0x42, 0x69, 0x61, 0x73, 0x41, 0x64, 0x64,
  0x2f, 0x52, 0x65, 0x61, 0x64, 0x56, 0x61, 0x72, 0x69, 0x61, 0x62, 0x6c,
  0x65, 0x4f, 0x70, 0x2f, 0x72, 0x65, 0x73, 0x6f, 0x75, 0x72, 0x63, 0x65,
  0x00, 0x00, 0x00, 0x00, 0x4c, 0xfe, 0xff, 0xff, 0x56, 0xff, 0xff, 0xff,
  0x04, 0x00, 0x00, 0x00, 0x40, 0x00, 0x00, 0x00, 0xb2, 0x4e, 0x8d, 0xbf,
  0xa4, 0x54, 0x8b, 0x3d, 0x1c, 0x33, 0x18, 0x3f, 0x5f, 0xad, 0xd5, 0x3f,
  0xa2, 0xd6, 0x54, 0xbf, 0x36, 0x9d, 0x34, 0xbc, 0xf3, 0x74, 0x20, 0x3e,
  0x66, 0x49, 0x92, 0xbc, 0x32, 0x23, 0x0c, 0xbd, 0x46, 0xfa, 0x8b, 0xbf,
  0xf1, 0x29, 0x10, 0xbd, 0x0a, 0x6e, 0x13, 0x3d, 0x4c, 0x4d, 0x0c, 0x3f,
  0x67, 0x9c, 0x6c, 0xbf, 0x12, 0x4d, 0x78, 0x3f, 0xe0, 0x8e, 0x00, 0x40,
  0x6e, 0xff, 0xff, 0xff, 0x10, 0x00, 0x00, 0x00, 0x03, 0x00, 0x00, 0x00,
  0x10, 0x00, 0x00, 0x00, 0x48, 0x00, 0x00, 0x00, 0x01, 0x00, 0x00, 0x00,
  0x10, 0x00, 0x00, 0x00, 0x33, 0x00, 0x00, 0x00, 0x73, 0x65, 0x71, 0x75,
  0x65, 0x6e, 0x74, 0x69, 0x61, 0x6c, 0x2f, 0x63, 0x6f, 0x6e, 0x76, 0x32,
  0x64, 0x5f, 0x31, 0x2f, 0x42, 0x69, 0x61, 0x73, 0x41, 0x64, 0x64, 0x2f,
  0x52, 0x65, 0x61, 0x64, 0x56, 0x61, 0x72, 0x69, 0x61, 0x62, 0x6c, 0x65,
  0x4f, 0x70, 0x2f, 0x72, 0x65, 0x73, 0x6f, 0x75, 0x72, 0x63, 0x65, 0x00,
  0x04, 0x00, 0x06, 0x00, 0x04, 0x00, 0x00, 0x00, 0x00, 0x00, 0x06, 0x00,
  0x08, 0x00, 0x04, 0x00, 0x06, 0x00, 0x00, 0x00, 0x04, 0x00, 0x00, 0x00,
  0x20, 0x00, 0x00, 0x00, 0x8c, 0xf8, 0x97, 0x3d, 0xdf, 0xfb, 0xbb, 0xbe,
  0x84, 0x37, 0x8a, 0xbf, 0x10, 0x79, 0xe3, 0xbe, 0x61, 0x5b, 0x77, 0xbf,
  0x5d, 0x35, 0x74, 0xbf, 0xb8, 0x77, 0x2b, 0xbf, 0xb7, 0xdc, 0xb6, 0xbf,
  0x00, 0x00, 0x0e, 0x00, 0x14, 0x00, 0x04, 0x00, 0x00, 0x00, 0x08, 0x00,
  0x0c, 0x00, 0x10, 0x00, 0x0e, 0x00, 0x00, 0x00, 0x10, 0x00, 0x00, 0x00,
  0x02, 0x00, 0x00, 0x00, 0x10, 0x00, 0x00, 0x00, 0x44, 0x00, 0x00, 0x00,
  0x01, 0x00, 0x00, 0x00, 0x08, 0x00, 0x00, 0x00, 0x31, 0x00, 0x00, 0x00,
  0x73, 0x65, 0x71, 0x75, 0x65, 0x6e, 0x74, 0x69, 0x61, 0x6c, 0x2f, 0x63,
  0x6f, 0x6e, 0x76, 0x32, 0x64, 0x2f, 0x42, 0x69, 0x61, 0x73, 0x41, 0x64,
  0x64, 0x2f, 0x52, 0x65, 0x61, 0x64, 0x56, 0x61, 0x72, 0x69, 0x61, 0x62,
  0x6c, 0x65, 0x4f, 0x70, 0x2f, 0x72, 0x65, 0x73, 0x6f, 0x75, 0x72, 0x63,
  0x65, 0x00, 0x00, 0x00, 0x90, 0xff, 0xff, 0xff, 0x14, 0x00, 0x18, 0x00,
  0x04, 0x00, 0x00, 0x00, 0x08, 0x00, 0x0c, 0x00, 0x10, 0x00, 0x00, 0x00,
  0x00, 0x00, 0x14, 0x00, 0x14, 0x00, 0x00, 0x00, 0x14, 0x00, 0x00, 0x00,
  0x01, 0x00, 0x00, 0x00, 0x20, 0x00, 0x00, 0x00, 0x44, 0x00, 0x00, 0x00,
  0x2c, 0x00, 0x00, 0x00, 0x04, 0x00, 0x00, 0x00, 0x01, 0x00, 0x00, 0x00,
  0x40, 0x00, 0x00, 0x00, 0x03, 0x00, 0x00, 0x00, 0x01, 0x00, 0x00, 0x00,
  0x0c, 0x00, 0x00, 0x00, 0x63, 0x6f, 0x6e, 0x76, 0x32, 0x64, 0x5f, 0x69,
  0x6e, 0x70, 0x75, 0x74, 0x00, 0x00, 0x00, 0x00, 0x04, 0x00, 0x00, 0x00,
  0xff, 0xff, 0xff, 0xff, 0x40, 0x00, 0x00, 0x00, 0x03, 0x00, 0x00, 0x00,
  0x01, 0x00, 0x00, 0x00, 0xfc, 0xff, 0xff, 0xff, 0x04, 0x00, 0x04, 0x00,
  0x04, 0x00, 0x00, 0x00
};

unsigned int model_tflite_len = 13120;// Fill the int in `src/model.cc` here